/***
 * Auto Generate by nn-case
*/

#include "plate-opt.h"

__attribute__((aligned(4))) 
static const unsigned char layer_199_convolution_bias_data[] = {
0x02,0x00,0x00,0x00,0x0b,0x00,0x00,0x00,0xfd,0xff,0xff,0xff,0x0d,0x00,0x00,0x00,0x01,0x00,0x00,0x00,0x03,0x00,0x00,0x00,0x02,0x00,0x00,0x00,0xff,0xff,0xff,0xff,
0x0d,0x00,0x00,0x00,0x0f,0x00,0x00,0x00,0x09,0x00,0x00,0x00,0x13,0x00,0x00,0x00,0xf8,0xff,0xff,0xff,0x07,0x00,0x00,0x00,0x0e,0x00,0x00,0x00,0x04,0x00,0x00,0x00,
0x00,0x00,0x00,0x00,0x00,0x00,0x00,0x00,0x00,0x00,0x00,0x00,0x00,0x00,0x00,0x00,0x00,0x00,0x00,0x00,0x00,0x00,0x00,0x00,0x00,0x00,0x00,0x00,0x00,0x00,0x00,0x00,
0x00,0x00,0x00,0x00,0x00,0x00,0x00,0x00,0x00,0x00,0x00,0x00,0x00,0x00,0x00,0x00,0x00,0x00,0x00,0x00,0x00,0x00,0x00,0x00,0x00,0x00,0x00,0x00,0x00,0x00,0x00,0x00,
0x00,0x00,0x00,0x00,0x00,0x00,0x00,0x00,0x00,0x00,0x00,0x00,0x00,0x00,0x00,0x00,0x00,0x00,0x00,0x00,0x00,0x00,0x00,0x00,0x00,0x00,0x00,0x00,0x00,0x00,0x00,0x00,
0x00,0x00,0x00,0x00,0x00,0x00,0x00,0x00,0x00,0x00,0x00,0x00,0x00,0x00,0x00,0x00,0x00,0x00,0x00,0x00,0x00,0x00,0x00,0x00,0x00,0x00,0x00,0x00,0x00,0x00,0x00,0x00,
};
DEFINE_TENSOR(layer_199_convolution_bias, 4, 4, 64, layer_199_convolution_bias_data)
__attribute__((aligned(4))) 
static const unsigned char layer_199_convolution_filters_data[] = {
0x07,0xff,0x08,0x03,0xfe,0x04,0xf8,0x0b,0xf9,0xff,0xfb,0xfb,0x08,0x0e,0x0c,0x0d,0x01,0x0f,0x0a,0x10,0x05,0x06,0x12,0x09,0x00,0x15,0x04,0xf6,0xc3,0xec,0x0c,0xf8,
0xf4,0x2b,0x2b,0x01,0xf1,0xbc,0xc4,0x1c,0xe8,0xe8,0x39,0x37,0x0d,0x1b,0xd3,0xf9,0x02,0x04,0xff,0x25,0x1c,0x09,0x09,0xf4,0x08,0xf9,0xf3,0x01,0x10,0xf6,0xfc,0x01,
0xe3,0xeb,0xfb,0xf0,0xfb,0xfc,0xf7,0xf5,0xef,0xed,0xf8,0x09,0xfa,0xf0,0x0f,0x04,0xf8,0x11,0x09,0xed,0x19,0xfb,0xf8,0x0b,0xf6,0xfc,0x22,0x0a,0xf1,0x15,0xfc,0xfd,
0x0c,0x02,0x02,0x10,0x02,0xf3,0x05,0x03,0xf8,0xfd,0x01,0x01,0xff,0xde,0x0f,0x0a,0xf2,0x13,0x0d,0x1b,0xab,0xf5,0xfd,0x2d,0x05,0x1e,0x47,0x27,0x05,0xed,0xf5,0xe8,
0x19,0xdd,0x03,0x38,0x11,0x30,0xdb,0x27,0x38,0x24,0x2a,0x2b,0x60,0x02,0x01,0xf1,0x1e,0x3b,0xf3,0x02,0x0d,0x02,0xf2,0x0b,0x1f,0xe5,0xed,0x0d,0xd9,0xe5,0xdf,0xbf,
0xc7,0xd5,0x1d,0x08,0xfa,0x1b,0xfa,0xec,0x10,0xed,0xea,0x2c,0x01,0xeb,0x2c,0xef,0xf0,0x18,0xe4,0xe1,0x24,0xfa,0xf1,0x26,0xf1,0xed,0x22,0xea,0xe5,0x18,0x04,0xea,
0x10,0x13,0xe9,0x09,0x12,0xea,0x1d,0xfd,0xef,0x1a,0x0e,0xf9,0x0e,0x08,0xec,0x02,0xf9,0xfa,0x19,0x04,0x04,0x13,0x14,0x0b,0x08,0xdb,0xc6,0xf7,0xaa,0xc4,0x16,0xd0,
0xdd,0x0e,0x07,0xfa,0x0c,0x0a,0xfb,0x0b,0xff,0xfa,0xf9,0x18,0x1e,0x07,0x5a,0x41,0x01,0x23,0x2b,0x0a,0xe7,0x0f,0xea,0x1e,0x27,0xf6,0x13,0xfe,0xf8,0xea,0x14,0xe6,
0x1d,0x16,0x09,0x20,0xed,0x05,0xe1,0x08,0xee,0x08,0x29,0x0e,0x21,0xf3,0x44,0x00,0xe3,0x23,0xe1,0xee,0x27,0x13,0xe7,0x10,0xe4,0xfe,0xd8,0xeb,0x1e,0xea,0x2d,0x43,
0xc5,0x18,0x50,0xb7,0xf3,0x06,0x81,0xe1,0xe3,0x00,0x01,0xff,0x03,0x01,0xfe,0x00,0x00,0x01,0xfa,0x04,0x08,0x05,0x0b,0x05,0x02,0x0a,0x02,0x00,0x03,0x06,0x01,0x0a,
0x04,0xfe,0x05,0x05,0xf6,0xf1,0xf7,0xfc,0xe3,0xfd,0xfc,0xe6,0xeb,0xfe,0xea,0x10,0xf8,0x01,0xfa,0x00,0xf6,0xec,0x09,0x0d,0x01,0x1d,0xf6,0xfb,0x11,0xe6,0xf4,0xfd,
0x12,0x0a,0xff,0x0c,0x04,0xf9,0x0d,0x0a,0x01,0x0a,0x0f,0x05,0x06,0x0d,0x09,0x02,0x04,0x01,0x07,0x02,0xf8,0x09,0x09,0x0b,0xfa,0x09,0xd4,0xed,0x07,0xc2,0x07,0x15,
0xda,0xe7,0x15,0x03,0x14,0x19,0xec,0xfc,0x16,0xdf,0xea,0x30,0x0c,0x20,0x25,0xf3,0x12,0x13,0xfd,0x18,0x41,0xff,0xe8,0x07,0xe7,0xe1,0xf1,0x08,0xfb,0xfb,0x02,0xef,
0xfb,0xef,0xec,0xec,0x0e,0x05,0xf2,0x12,0x06,0xff,0x05,0xec,0x05,0x02,0x06,0xfe,0x00,0x00,0x00,0x00,0x00,0x00,0x00,0x00,0x00,0x00,0x00,0x00,0x00,0x00,0x00,0x00,
0x00,0x00,0x00,0x00,0x00,0x00,0x00,0x00,0x00,0x00,0x00,0x00,0x00,0x00,0x00,0x00,};
DEFINE_TENSOR(layer_199_convolution_filters, 1, 2, 432, layer_199_convolution_filters_data)
__attribute__((aligned(4))) 
static const unsigned char layer_199_convolution_requantize_data[] = {
0x34,0xc3,0xf7,0x3a,0x00,0x00,0x00,0x00,0x00,0x00,0x00,0x00,0x00,0x00,0x00,0x00,0x00,0x00,0x00,0x00,0x00,0x00,0x00,0x00,0x00,0x00,0x00,0x00,0x00,0x00,0x00,0x00,
0x00,0x00,0x00,0x00,0x00,0x00,0x00,0x00,0x00,0x00,0x00,0x00,0x00,0x00,0x00,0x00,0x00,0x00,0x00,0x00,0x00,0x00,0x00,0x00,0x00,0x00,0x00,0x00,0x00,0x00,0x00,0x00,
0x00,0x00,0x00,0x00,0x00,0x00,0x00,0x00,0x00,0x00,0x00,0x00,0x00,0x00,0x00,0x00,0x00,0x00,0x00,0x00,0x00,0x00,0x00,0x00,0x00,0x00,0x00,0x00,0x00,0x00,0x00,0x00,
0x00,0x00,0x00,0x00,0x00,0x00,0x00,0x00,0x00,0x00,0x00,0x00,0x00,0x00,0x00,0x00,0x00,0x00,0x00,0x00,0x00,0x00,0x00,0x00,0x00,0x00,0x00,0x00,0x00,0x00,0x00,0x00,
0x00,0x00,0x00,0x00,};
DEFINE_TENSOR(layer_199_convolution_requantize, 4, 1, 4, layer_199_convolution_requantize_data)
__attribute__((aligned(4))) 
static const unsigned char layer_202_convolution_bias_data[] = {
0xee,0xff,0xff,0xff,0x1e,0x00,0x00,0x00,0xf0,0xff,0xff,0xff,0x0b,0x00,0x00,0x00,0xfc,0xff,0xff,0xff,0x0f,0x00,0x00,0x00,0x2b,0x00,0x00,0x00,0xf5,0xff,0xff,0xff,
0xff,0xff,0xff,0xff,0xf8,0xff,0xff,0xff,0x0c,0x00,0x00,0x00,0x12,0x00,0x00,0x00,0x0a,0x00,0x00,0x00,0xf9,0xff,0xff,0xff,0xf4,0xff,0xff,0xff,0x0a,0x00,0x00,0x00,
0x00,0x00,0x00,0x00,0x00,0x00,0x00,0x00,0x00,0x00,0x00,0x00,0x00,0x00,0x00,0x00,0x00,0x00,0x00,0x00,0x00,0x00,0x00,0x00,0x00,0x00,0x00,0x00,0x00,0x00,0x00,0x00,
0x00,0x00,0x00,0x00,0x00,0x00,0x00,0x00,0x00,0x00,0x00,0x00,0x00,0x00,0x00,0x00,0x00,0x00,0x00,0x00,0x00,0x00,0x00,0x00,0x00,0x00,0x00,0x00,0x00,0x00,0x00,0x00,
0x00,0x00,0x00,0x00,0x00,0x00,0x00,0x00,0x00,0x00,0x00,0x00,0x00,0x00,0x00,0x00,0x00,0x00,0x00,0x00,0x00,0x00,0x00,0x00,0x00,0x00,0x00,0x00,0x00,0x00,0x00,0x00,
0x00,0x00,0x00,0x00,0x00,0x00,0x00,0x00,0x00,0x00,0x00,0x00,0x00,0x00,0x00,0x00,0x00,0x00,0x00,0x00,0x00,0x00,0x00,0x00,0x00,0x00,0x00,0x00,0x00,0x00,0x00,0x00,
};
DEFINE_TENSOR(layer_202_convolution_bias, 4, 4, 64, layer_202_convolution_bias_data)
__attribute__((aligned(4))) 
static const unsigned char layer_202_convolution_filters_data[] = {
0x03,0x08,0x02,0x04,0x08,0x10,0xfc,0xf8,0xff,0x05,0xf5,0xfd,0xec,0x28,0x0b,0xf5,0x00,0xfd,0x03,0x02,0x05,0x02,0x0d,0x06,0xff,0x01,0x02,0x1d,0x07,0x00,0x1b,0xe7,
0xd3,0x2f,0x02,0xe0,0x08,0x17,0x0c,0xe6,0x10,0x13,0xce,0x0e,0x09,0xf4,0xf5,0x04,0xf8,0xfe,0xf8,0xff,0xf5,0xfe,0x05,0x01,0xfe,0x07,0xdc,0xf0,0x10,0xfe,0x0a,0x03,
0xfc,0x0c,0x01,0x02,0x07,0xfc,0x02,0x09,0xff,0x0d,0xfc,0x02,0x42,0x00,0xfe,0xbe,0xf9,0xfb,0xf7,0xf4,0x31,0xf3,0xf7,0x26,0xf2,0xf8,0xf8,0xf7,0xf9,0xf7,0xfa,0x00,
0x07,0x0a,0x04,0xab,0x18,0x13,0x81,0x66,0x50,0xc1,0x31,0x0b,0x03,0xf4,0xfa,0xf7,0xee,0xfe,0xfb,0xf7,0x08,0xf7,0xd4,0xf0,0x0c,0x13,0xfa,0x11,0x22,0x0a,0x06,0x03,
0x02,0x04,0x07,0xff,0x01,0x01,0x08,0x1b,0x1e,0x0c,0xdc,0x0c,0x07,0xb3,0x17,0x03,0x00,0x00,0x00,0x00,0x00,0x00,0x00,0x00,0x00,0x00,0x00,0x00,0x00,0x00,0x00,0x00,
0x00,0x00,0x00,0x00,0x00,0x00,0x00,0x00,0x00,0x00,0x00,0x00,0x00,0x00,0x00,0x00,};
DEFINE_TENSOR(layer_202_convolution_filters, 1, 2, 144, layer_202_convolution_filters_data)
__attribute__((aligned(4))) 
static const unsigned char layer_202_convolution_requantize_data[] = {
0x8c,0xec,0x16,0x3d,0x00,0x00,0x00,0x00,0x00,0x00,0x00,0x00,0x00,0x00,0x00,0x00,0x00,0x00,0x00,0x00,0x00,0x00,0x00,0x00,0x00,0x00,0x00,0x00,0x00,0x00,0x00,0x00,
0x00,0x00,0x00,0x00,0x00,0x00,0x00,0x00,0x00,0x00,0x00,0x00,0x00,0x00,0x00,0x00,0x00,0x00,0x00,0x00,0x00,0x00,0x00,0x00,0x00,0x00,0x00,0x00,0x00,0x00,0x00,0x00,
0x00,0x00,0x00,0x00,0x00,0x00,0x00,0x00,0x00,0x00,0x00,0x00,0x00,0x00,0x00,0x00,0x00,0x00,0x00,0x00,0x00,0x00,0x00,0x00,0x00,0x00,0x00,0x00,0x00,0x00,0x00,0x00,
0x00,0x00,0x00,0x00,0x00,0x00,0x00,0x00,0x00,0x00,0x00,0x00,0x00,0x00,0x00,0x00,0x00,0x00,0x00,0x00,0x00,0x00,0x00,0x00,0x00,0x00,0x00,0x00,0x00,0x00,0x00,0x00,
0x00,0x00,0x00,0x00,};
DEFINE_TENSOR(layer_202_convolution_requantize, 4, 1, 4, layer_202_convolution_requantize_data)
__attribute__((aligned(4))) 
static const unsigned char layer_205_convolution_bias_data[] = {
0x1a,0x00,0x00,0x00,0x0d,0x00,0x00,0x00,0xe4,0xff,0xff,0xff,0x17,0x00,0x00,0x00,0xfd,0xff,0xff,0xff,0x07,0x00,0x00,0x00,0xf2,0xff,0xff,0xff,0x1f,0x00,0x00,0x00,
0xe9,0xff,0xff,0xff,0x10,0x00,0x00,0x00,0x05,0x00,0x00,0x00,0x0e,0x00,0x00,0x00,0xf2,0xff,0xff,0xff,0xf2,0xff,0xff,0xff,0xfa,0xff,0xff,0xff,0x0b,0x00,0x00,0x00,
0x07,0x00,0x00,0x00,0x05,0x00,0x00,0x00,0xf4,0xff,0xff,0xff,0x06,0x00,0x00,0x00,0x01,0x00,0x00,0x00,0xea,0xff,0xff,0xff,0xdd,0xff,0xff,0xff,0x01,0x00,0x00,0x00,
0x09,0x00,0x00,0x00,0x04,0x00,0x00,0x00,0x0f,0x00,0x00,0x00,0x0e,0x00,0x00,0x00,0x06,0x00,0x00,0x00,0x03,0x00,0x00,0x00,0xfb,0xff,0xff,0xff,0xfe,0xff,0xff,0xff,
0x00,0x00,0x00,0x00,0x00,0x00,0x00,0x00,0x00,0x00,0x00,0x00,0x00,0x00,0x00,0x00,0x00,0x00,0x00,0x00,0x00,0x00,0x00,0x00,0x00,0x00,0x00,0x00,0x00,0x00,0x00,0x00,
0x00,0x00,0x00,0x00,0x00,0x00,0x00,0x00,0x00,0x00,0x00,0x00,0x00,0x00,0x00,0x00,0x00,0x00,0x00,0x00,0x00,0x00,0x00,0x00,0x00,0x00,0x00,0x00,0x00,0x00,0x00,0x00,
0x00,0x00,0x00,0x00,0x00,0x00,0x00,0x00,0x00,0x00,0x00,0x00,0x00,0x00,0x00,0x00,0x00,0x00,0x00,0x00,0x00,0x00,0x00,0x00,0x00,0x00,0x00,0x00,0x00,0x00,0x00,0x00,
0x00,0x00,0x00,0x00,0x00,0x00,0x00,0x00,0x00,0x00,0x00,0x00,0x00,0x00,0x00,0x00,0x00,0x00,0x00,0x00,0x00,0x00,0x00,0x00,0x00,0x00,0x00,0x00,0x00,0x00,0x00,0x00,
};
DEFINE_TENSOR(layer_205_convolution_bias, 4, 4, 128, layer_205_convolution_bias_data)
__attribute__((aligned(4))) 
static const unsigned char layer_205_convolution_filters_data[] = {
0x0b,0xd4,0xff,0x04,0x03,0x05,0xe8,0x0a,0xfa,0xfb,0x01,0xe4,0xfb,0xfe,0xfe,0x0b,0xfe,0x02,0xf4,0xf6,0xf2,0x05,0xf4,0x02,0xeb,0x11,0x02,0xe1,0x00,0x05,0xfb,0x0e,
0x41,0x24,0x19,0xee,0x17,0x04,0x3f,0xec,0x07,0x15,0xe2,0x02,0xfc,0x13,0x07,0x0f,0xfb,0xef,0xfb,0x04,0x04,0xf4,0xea,0x0b,0x03,0xf5,0xff,0xe9,0x0a,0xd8,0xee,0xd6,
0xee,0xed,0x1f,0xfa,0x11,0xff,0x07,0xfb,0xe2,0x0f,0x23,0x19,0x0a,0x33,0xf0,0xe7,0x06,0x16,0x0a,0x02,0xfd,0x0c,0xea,0x11,0xea,0x0c,0x08,0xe2,0xf4,0xf3,0x0b,0x08,
0x06,0x2e,0xff,0xe9,0x10,0xfb,0xff,0xfa,0x00,0x13,0x13,0x1a,0x04,0xf8,0xeb,0xfc,0xfe,0xba,0x09,0xfe,0xff,0x01,0xec,0x08,0xf5,0x01,0xf6,0xec,0xfe,0xff,0x0a,0x06,
0xf3,0x34,0xf8,0x1e,0x0b,0x07,0x14,0xe1,0x02,0x3e,0xea,0xf2,0x16,0x07,0xf5,0x20,0xfd,0xe9,0x0c,0x04,0x11,0xf3,0xf6,0xfa,0x29,0xfc,0x00,0xe4,0x00,0xf5,0x01,0xfc,
0xec,0xfb,0x2e,0xf5,0xfd,0xfc,0x11,0xdd,0x00,0xfe,0xeb,0x01,0xe4,0xf7,0xfd,0x02,0xff,0x23,0x12,0xfe,0xfb,0x0b,0xb8,0x0a,0x01,0x01,0x06,0xfe,0xf8,0xfc,0xf5,0xfb,
0x0f,0x3b,0x02,0x0a,0xdf,0x14,0xf4,0x03,0xfc,0x07,0x0e,0x14,0xf8,0x03,0xeb,0xf1,0x0b,0x0f,0x05,0x0a,0x03,0x06,0x04,0xfb,0xf9,0xf7,0x00,0x2b,0x01,0xf8,0xfc,0xf1,
0xfa,0x0a,0x01,0xf1,0x07,0x13,0x0b,0x23,0x1b,0x2a,0xfa,0xe3,0x14,0xf1,0x1c,0x1b,0x0c,0xe0,0x05,0xec,0xf6,0x09,0xf6,0x04,0x19,0xfa,0x07,0x00,0xeb,0x2c,0x0a,0x0f,
0x02,0xe0,0x0c,0xea,0x00,0x22,0xff,0x04,0x1c,0xf6,0x13,0xed,0x0c,0x13,0x1a,0x1f,0xf7,0x10,0x01,0x08,0xf0,0x02,0x01,0xf5,0xff,0x13,0xfa,0xde,0xfb,0xfe,0xf7,0x03,
0x31,0xdf,0x14,0xeb,0xfc,0x12,0x41,0x7d,0x0a,0x07,0x08,0xf6,0xfe,0xf9,0xd6,0x03,0xef,0x03,0x2b,0x05,0xfa,0x06,0x08,0xf6,0x01,0x01,0x02,0xec,0xe8,0xeb,0xf2,0xf6,
0x09,0x14,0x04,0xf8,0xe5,0x13,0xfd,0x0f,0xfb,0x15,0x0d,0xec,0x00,0x07,0x13,0x17,0xf9,0x30,0xf0,0xfe,0xff,0x1c,0x03,0xf2,0xf8,0x2b,0xf4,0x07,0x04,0x2a,0xef,0x2f,
0x05,0x58,0x02,0x03,0x01,0xfc,0x20,0xfc,0xf1,0xfd,0xf8,0x0a,0xfb,0xfb,0xfe,0xfd,0x1b,0xf9,0x7f,0xec,0xff,0xd9,0x1e,0xea,0xf2,0xfd,0xf2,0xfd,0xe6,0x0d,0xda,0xff,
0x25,0xe5,0xfe,0x12,0x09,0x0d,0x03,0x0c,0xfc,0x0d,0x03,0xde,0xef,0x02,0x08,0x02,0x04,0x10,0x04,0xf8,0xe1,0x12,0xf9,0x0b,0xf6,0x16,0x0a,0xed,0x03,0x0d,0x07,0x17,
0x05,0x19,0x0b,0x10,0xfd,0x09,0xaf,0x10,0xfd,0xf9,0x0c,0x02,0xf2,0x08,0xfd,0xfe,0x05,0x04,0x05,0x03,0xfc,0xfe,0xf0,0x06,0xfa,0x0b,0x00,0xe0,0xfa,0xfa,0xf9,0x08,
0x17,0x0b,0xf4,0xbd,0xfd,0x05,0xf9,0x19,0x01,0xf4,0x0c,0x0e,0x11,0xf3,0xef,0xff,0x05,0x02,0xfc,0x25,0xf4,0xfe,0x05,0xfc,0xfb,0x02,0xf0,0xe0,0x04,0x03,0xf6,0x04,
0x0a,0xff,0x02,0xff,0x00,0x02,0x00,0xf8,0xfb,0xe7,0x08,0x28,0xff,0x00,0x17,0xf9,0x02,0xff,0x01,0xfd,0x01,0x08,0x00,0xfd,0x30,0x00,0x02,0x04,0xfe,0x06,0xfe,0x07,
0x00,0x00,0x00,0x00,0x00,0x00,0x00,0x00,0x00,0x00,0x00,0x00,0x00,0x00,0x00,0x00,0x00,0x00,0x00,0x00,0x00,0x00,0x00,0x00,0x00,0x00,0x00,0x00,0x00,0x00,0x00,0x00,
};
DEFINE_TENSOR(layer_205_convolution_filters, 1, 2, 512, layer_205_convolution_filters_data)
__attribute__((aligned(4))) 
static const unsigned char layer_205_convolution_requantize_data[] = {
0x2a,0x2c,0xfd,0x3b,0x00,0x00,0x00,0x00,0x00,0x00,0x00,0x00,0x00,0x00,0x00,0x00,0x00,0x00,0x00,0x00,0x00,0x00,0x00,0x00,0x00,0x00,0x00,0x00,0x00,0x00,0x00,0x00,
0x00,0x00,0x00,0x00,0x00,0x00,0x00,0x00,0x00,0x00,0x00,0x00,0x00,0x00,0x00,0x00,0x00,0x00,0x00,0x00,0x00,0x00,0x00,0x00,0x00,0x00,0x00,0x00,0x00,0x00,0x00,0x00,
0x00,0x00,0x00,0x00,0x00,0x00,0x00,0x00,0x00,0x00,0x00,0x00,0x00,0x00,0x00,0x00,0x00,0x00,0x00,0x00,0x00,0x00,0x00,0x00,0x00,0x00,0x00,0x00,0x00,0x00,0x00,0x00,
0x00,0x00,0x00,0x00,0x00,0x00,0x00,0x00,0x00,0x00,0x00,0x00,0x00,0x00,0x00,0x00,0x00,0x00,0x00,0x00,0x00,0x00,0x00,0x00,0x00,0x00,0x00,0x00,0x00,0x00,0x00,0x00,
0x00,0x00,0x00,0x00,};
DEFINE_TENSOR(layer_205_convolution_requantize, 4, 1, 4, layer_205_convolution_requantize_data)
__attribute__((aligned(4))) 
static const unsigned char layer_208_convolution_bias_data[] = {
0xff,0xff,0xff,0xff,0xf9,0xff,0xff,0xff,0x06,0x00,0x00,0x00,0xfa,0xff,0xff,0xff,0xfa,0xff,0xff,0xff,0x00,0x00,0x00,0x00,0x06,0x00,0x00,0x00,0xfd,0xff,0xff,0xff,
0x05,0x00,0x00,0x00,0x0a,0x00,0x00,0x00,0xfd,0xff,0xff,0xff,0xfd,0xff,0xff,0xff,0x00,0x00,0x00,0x00,0x00,0x00,0x00,0x00,0x05,0x00,0x00,0x00,0x01,0x00,0x00,0x00,
0x03,0x00,0x00,0x00,0x07,0x00,0x00,0x00,0xfb,0xff,0xff,0xff,0xff,0xff,0xff,0xff,0x00,0x00,0x00,0x00,0x00,0x00,0x00,0x00,0x09,0x00,0x00,0x00,0xfd,0xff,0xff,0xff,
0xfb,0xff,0xff,0xff,0xfe,0xff,0xff,0xff,0x01,0x00,0x00,0x00,0xfd,0xff,0xff,0xff,0xf9,0xff,0xff,0xff,0xf9,0xff,0xff,0xff,0x02,0x00,0x00,0x00,0x01,0x00,0x00,0x00,
0x00,0x00,0x00,0x00,0x00,0x00,0x00,0x00,0x00,0x00,0x00,0x00,0x00,0x00,0x00,0x00,0x00,0x00,0x00,0x00,0x00,0x00,0x00,0x00,0x00,0x00,0x00,0x00,0x00,0x00,0x00,0x00,
0x00,0x00,0x00,0x00,0x00,0x00,0x00,0x00,0x00,0x00,0x00,0x00,0x00,0x00,0x00,0x00,0x00,0x00,0x00,0x00,0x00,0x00,0x00,0x00,0x00,0x00,0x00,0x00,0x00,0x00,0x00,0x00,
0x00,0x00,0x00,0x00,0x00,0x00,0x00,0x00,0x00,0x00,0x00,0x00,0x00,0x00,0x00,0x00,0x00,0x00,0x00,0x00,0x00,0x00,0x00,0x00,0x00,0x00,0x00,0x00,0x00,0x00,0x00,0x00,
0x00,0x00,0x00,0x00,0x00,0x00,0x00,0x00,0x00,0x00,0x00,0x00,0x00,0x00,0x00,0x00,0x00,0x00,0x00,0x00,0x00,0x00,0x00,0x00,0x00,0x00,0x00,0x00,0x00,0x00,0x00,0x00,
};
DEFINE_TENSOR(layer_208_convolution_bias, 4, 4, 128, layer_208_convolution_bias_data)
__attribute__((aligned(4))) 
static const unsigned char layer_208_convolution_filters_data[] = {
0x02,0x0f,0xee,0xe7,0x50,0xd0,0xe2,0x2e,0xfb,0x12,0x19,0xff,0x0d,0x3c,0xfa,0x04,0x0e,0x0c,0xee,0xfe,0x06,0xea,0xec,0xf5,0xec,0x07,0xeb,0x10,0x11,0x08,0x08,0x22,
0x1d,0x00,0x0a,0x06,0x08,0xf6,0xf9,0x05,0x16,0x0d,0x01,0x1a,0x18,0xf2,0xeb,0x16,0xc3,0xeb,0x4d,0xd4,0x1c,0x22,0xe8,0xf0,0x14,0xe7,0xf8,0xf7,0xf9,0xe9,0xea,0x01,
0xff,0x05,0xef,0xfc,0x3f,0xf2,0xfc,0x32,0x03,0x13,0x24,0x0f,0x04,0xf6,0xea,0xd7,0xcc,0x03,0xff,0xeb,0xf6,0xeb,0xdf,0xeb,0xe6,0xf1,0x05,0xc1,0xb5,0x53,0x2c,0xbb,
0x7f,0x27,0xca,0x06,0x02,0x03,0x10,0x19,0x12,0x09,0x07,0xfd,0xf3,0x03,0x10,0xc4,0x2c,0x05,0xde,0x15,0x14,0x09,0x16,0x0e,0x19,0x24,0x18,0x01,0xfd,0xff,0x04,0xe3,
0xf1,0xf2,0xfd,0x02,0xe9,0xda,0x09,0xfb,0x16,0x1b,0xe7,0x0f,0x22,0xd5,0x01,0x07,0x0c,0xd8,0xdb,0x0e,0xf2,0xe7,0x06,0x19,0xfc,0xc2,0xbf,0xdc,0xe2,0xdf,0x06,0x25,
0x4c,0x17,0x00,0x03,0x06,0x05,0x10,0x0a,0x06,0x0e,0x04,0x58,0x67,0x41,0xed,0xee,0x0f,0xc9,0x9f,0xaf,0x00,0x64,0xa4,0xf7,0x38,0xca,0xff,0xfa,0x0b,0xf6,0xfd,0x02,
0x00,0x0f,0x18,0x01,0x0f,0x0f,0xea,0xd6,0xe8,0xf4,0xe0,0xee,0x03,0xf9,0xf5,0xe8,0x12,0x2f,0xf2,0x11,0x20,0xd9,0xf8,0x02,0x10,0x17,0x1a,0x08,0x1b,0x0d,0x01,0xf7,
0x05,0x4e,0xac,0x0f,0x40,0xa6,0x20,0xfc,0x01,0x05,0xf4,0xdf,0xdb,0xed,0xee,0xfc,0x12,0x35,0x2e,0xba,0x19,0x62,0xf3,0x73,0xe0,0x46,0xdc,0x95,0x0a,0x15,0x04,0x16,
0x0c,0x19,0xfd,0x0f,0x11,0x1a,0x08,0x02,0x1c,0x20,0x14,0x06,0x19,0x0f,0xf5,0xc2,0xd7,0xf2,0x23,0x20,0xd3,0x3d,0x28,0x02,0x12,0x0e,0x09,0x20,0x19,0x05,0x0f,0x0b,
0x00,0x00,0x00,0x00,0x00,0x00,0x00,0x00,0x00,0x00,0x00,0x00,0x00,0x00,0x00,0x00,0x00,0x00,0x00,0x00,0x00,0x00,0x00,0x00,0x00,0x00,0x00,0x00,0x00,0x00,0x00,0x00,
};
DEFINE_TENSOR(layer_208_convolution_filters, 1, 2, 288, layer_208_convolution_filters_data)
__attribute__((aligned(4))) 
static const unsigned char layer_208_convolution_requantize_data[] = {
0x18,0x78,0x8f,0x3c,0x00,0x00,0x00,0x00,0x00,0x00,0x00,0x00,0x00,0x00,0x00,0x00,0x00,0x00,0x00,0x00,0x00,0x00,0x00,0x00,0x00,0x00,0x00,0x00,0x00,0x00,0x00,0x00,
0x00,0x00,0x00,0x00,0x00,0x00,0x00,0x00,0x00,0x00,0x00,0x00,0x00,0x00,0x00,0x00,0x00,0x00,0x00,0x00,0x00,0x00,0x00,0x00,0x00,0x00,0x00,0x00,0x00,0x00,0x00,0x00,
0x00,0x00,0x00,0x00,0x00,0x00,0x00,0x00,0x00,0x00,0x00,0x00,0x00,0x00,0x00,0x00,0x00,0x00,0x00,0x00,0x00,0x00,0x00,0x00,0x00,0x00,0x00,0x00,0x00,0x00,0x00,0x00,
0x00,0x00,0x00,0x00,0x00,0x00,0x00,0x00,0x00,0x00,0x00,0x00,0x00,0x00,0x00,0x00,0x00,0x00,0x00,0x00,0x00,0x00,0x00,0x00,0x00,0x00,0x00,0x00,0x00,0x00,0x00,0x00,
0x00,0x00,0x00,0x00,};
DEFINE_TENSOR(layer_208_convolution_requantize, 4, 1, 4, layer_208_convolution_requantize_data)
__attribute__((aligned(4))) 
static const unsigned char layer_211_convolution_bias_data[] = {
0x00,0x00,0x00,0x00,0x08,0x00,0x00,0x00,0x0a,0x00,0x00,0x00,0xf1,0xff,0xff,0xff,0xfa,0xff,0xff,0xff,0x03,0x00,0x00,0x00,0x0d,0x00,0x00,0x00,0xf6,0xff,0xff,0xff,
0x04,0x00,0x00,0x00,0xff,0xff,0xff,0xff,0xfb,0xff,0xff,0xff,0x09,0x00,0x00,0x00,0x00,0x00,0x00,0x00,0x01,0x00,0x00,0x00,0x05,0x00,0x00,0x00,0xfd,0xff,0xff,0xff,
0x04,0x00,0x00,0x00,0x04,0x00,0x00,0x00,0x04,0x00,0x00,0x00,0x00,0x00,0x00,0x00,0x0a,0x00,0x00,0x00,0x06,0x00,0x00,0x00,0x0b,0x00,0x00,0x00,0x09,0x00,0x00,0x00,
0x02,0x00,0x00,0x00,0x03,0x00,0x00,0x00,0x06,0x00,0x00,0x00,0x0f,0x00,0x00,0x00,0x07,0x00,0x00,0x00,0x02,0x00,0x00,0x00,0x04,0x00,0x00,0x00,0x08,0x00,0x00,0x00,
0x00,0x00,0x00,0x00,0x00,0x00,0x00,0x00,0x00,0x00,0x00,0x00,0x00,0x00,0x00,0x00,0x00,0x00,0x00,0x00,0x00,0x00,0x00,0x00,0x00,0x00,0x00,0x00,0x00,0x00,0x00,0x00,
0x00,0x00,0x00,0x00,0x00,0x00,0x00,0x00,0x00,0x00,0x00,0x00,0x00,0x00,0x00,0x00,0x00,0x00,0x00,0x00,0x00,0x00,0x00,0x00,0x00,0x00,0x00,0x00,0x00,0x00,0x00,0x00,
0x00,0x00,0x00,0x00,0x00,0x00,0x00,0x00,0x00,0x00,0x00,0x00,0x00,0x00,0x00,0x00,0x00,0x00,0x00,0x00,0x00,0x00,0x00,0x00,0x00,0x00,0x00,0x00,0x00,0x00,0x00,0x00,
0x00,0x00,0x00,0x00,0x00,0x00,0x00,0x00,0x00,0x00,0x00,0x00,0x00,0x00,0x00,0x00,0x00,0x00,0x00,0x00,0x00,0x00,0x00,0x00,0x00,0x00,0x00,0x00,0x00,0x00,0x00,0x00,
};
DEFINE_TENSOR(layer_211_convolution_bias, 4, 4, 128, layer_211_convolution_bias_data)
__attribute__((aligned(4))) 
static const unsigned char layer_211_convolution_filters_data[] = {
0xec,0x05,0xf4,0x0b,0x02,0x0c,0xef,0xea,0xf6,0x1e,0xfe,0x7f,0xf0,0xcc,0xf5,0xf7,0x22,0xfe,0x19,0x12,0xfa,0xeb,0x10,0xf2,0xed,0xf3,0x29,0x0f,0x0b,0x04,0xfd,0x03,
0x12,0x45,0x05,0xe5,0x0a,0x19,0x14,0xd2,0xea,0xea,0xe1,0xfc,0x0e,0xf4,0xe2,0xe1,0x39,0xeb,0x10,0x0b,0x1d,0xf9,0xe9,0x12,0x05,0xf0,0xf7,0xb0,0xf6,0x17,0xb4,0xf3,
0xe9,0x13,0xfa,0xf1,0xf0,0xe7,0x2a,0xf2,0x0a,0x04,0xd9,0xd7,0xf0,0xce,0xf7,0xfe,0xef,0xed,0xca,0x35,0xf4,0xe2,0x01,0x3c,0xfe,0xf6,0xfa,0xe8,0xf8,0xed,0xfc,0xf6,
0x01,0xf0,0x3c,0xf7,0x04,0xf0,0xf0,0xfe,0x0d,0x25,0x2c,0xf0,0x12,0xf5,0x0b,0x00,0x0a,0x2c,0x5c,0x3c,0xf6,0x50,0x21,0x06,0x2c,0xe2,0x04,0x1d,0x35,0xf1,0x19,0x2b,
0xbc,0x05,0x27,0x06,0x0d,0xd2,0x23,0xc6,0x15,0xfa,0xec,0x7b,0xef,0x16,0x09,0xee,0xeb,0xfb,0x2d,0xe0,0xee,0xd7,0x0b,0xf8,0x30,0xe7,0x52,0x14,0x0d,0xf0,0x03,0x31,
0x30,0x0c,0x24,0xfa,0xe6,0x55,0xd8,0x30,0xe1,0xc9,0xd5,0x01,0x13,0x0c,0x0d,0x0f,0xf7,0xe4,0x22,0xe6,0x51,0x13,0xb3,0xea,0xef,0x4e,0x07,0x1d,0xae,0xa9,0x01,0x11,
0xe2,0xbe,0xe7,0xd7,0xf4,0xe2,0xc9,0xdd,0xc4,0xea,0xde,0x22,0xd9,0xdf,0xde,0xbe,0x08,0x0a,0xf8,0x25,0xc3,0x3d,0xf8,0x1c,0xed,0xd4,0xe6,0x16,0xf3,0xf7,0x00,0x2e,
0x22,0xea,0xf6,0x0a,0x1d,0x14,0x13,0x1f,0xfa,0x0c,0x0f,0x0d,0x24,0x1e,0xf5,0xf4,0xef,0xe1,0x0c,0x12,0x34,0x3e,0x21,0x10,0x3f,0x26,0x15,0x08,0xf1,0xdf,0x17,0x1e,
0x10,0xfe,0xeb,0x0e,0xf8,0x11,0xf5,0x15,0x05,0xef,0x03,0xe5,0x0f,0x3b,0x0a,0x02,0xf3,0x06,0xff,0xfa,0x15,0xfd,0xe7,0xfc,0x2d,0x18,0x0c,0x0f,0x01,0xfc,0x0c,0x0a,
0x1b,0xe7,0xff,0xff,0x01,0x1a,0x01,0x1a,0xf1,0x2a,0x05,0xfa,0x1d,0x2f,0x2d,0x09,0xf2,0xf5,0xfe,0xf7,0x29,0xfa,0xe5,0x08,0xf9,0x24,0xe7,0x17,0x0f,0x0e,0x1b,0xbb,
0xf0,0x3e,0xf5,0xe4,0x1a,0x3c,0xf2,0xc7,0x13,0x2c,0x04,0x05,0x11,0xe1,0x18,0xf8,0x02,0x1f,0xfe,0x0d,0xe1,0xec,0xef,0x1c,0xf3,0xff,0x21,0x62,0xfb,0x2c,0x39,0xc4,
0x19,0x10,0xff,0xe7,0xf6,0xfe,0xf0,0x05,0xeb,0x03,0xf7,0x17,0x0c,0x19,0xf5,0xe0,0x08,0xf7,0xfe,0xd1,0x1a,0xfe,0xf3,0x13,0x0d,0x13,0xf0,0xd8,0x03,0x19,0xef,0xb1,
0x03,0xf0,0xf1,0x0e,0x00,0x05,0xf2,0xfa,0x2b,0xf4,0xec,0xd4,0x07,0x09,0x17,0x2e,0xfc,0x0d,0x0b,0x01,0x01,0xff,0xf3,0xe9,0x17,0x07,0x08,0x05,0xef,0x0c,0x1d,0x3a,
0x09,0xf9,0xfe,0xfd,0xf8,0xff,0x11,0x04,0xf9,0xeb,0x08,0x32,0x07,0x0f,0x05,0x0f,0xf2,0x0b,0x09,0x17,0x0a,0x13,0xd7,0x24,0x12,0x0a,0x1d,0x0b,0x06,0x1c,0x01,0x20,
0x04,0xeb,0x03,0x09,0xea,0x05,0xff,0xf8,0x03,0xd2,0xf7,0xe0,0x04,0x12,0x01,0x17,0xfd,0x18,0xf4,0x1f,0x03,0xfa,0xfb,0xfa,0xf1,0x00,0x06,0x12,0xf1,0xf5,0xe8,0x45,
0x3b,0x26,0xfa,0xfd,0x09,0x3a,0x1f,0xd5,0x01,0xfb,0xf2,0xf5,0x6f,0xff,0x01,0x0b,0x18,0xee,0xf3,0xf2,0x37,0xee,0x16,0x2d,0xfd,0x51,0x00,0x0d,0x02,0xfd,0xf9,0xd0,
0x07,0x16,0x0a,0xee,0xf7,0xe6,0x00,0xef,0xeb,0xe6,0xd6,0x04,0x12,0xc0,0xd8,0x0c,0x12,0x12,0x13,0x0e,0xf6,0x13,0x02,0x12,0xf6,0xfe,0x1a,0xfa,0x14,0xed,0xd1,0x41,
0xbc,0xd4,0x09,0x1d,0x18,0xb0,0x0f,0xf7,0xfd,0xf8,0x08,0x17,0xd3,0xd3,0xd8,0xf1,0xf7,0x17,0x12,0xfa,0xb3,0xea,0x15,0xdb,0x11,0xd2,0x4f,0x1d,0xfd,0x0d,0x45,0x15,
0xfb,0xed,0x03,0xf8,0x09,0xfd,0xfd,0xfb,0x00,0xe9,0xf8,0x05,0xf9,0xf9,0x0b,0x07,0x05,0xe1,0x09,0x1c,0x00,0x06,0xf6,0x21,0xfe,0xfa,0xf3,0x0a,0xf3,0xf3,0x00,0x52,
0xd2,0x0e,0x32,0x06,0x13,0x00,0xe0,0xcf,0x09,0x1b,0xdd,0xb6,0xec,0xeb,0x04,0xef,0x06,0x18,0x3c,0xf3,0x2c,0xf8,0x10,0xe4,0x20,0x33,0xf0,0x04,0xd9,0xcb,0x2c,0xd5,
0x42,0xb8,0x20,0xfb,0xc7,0xb6,0xe6,0x3f,0xff,0xdf,0x16,0x02,0x31,0xf3,0xf1,0x02,0xf7,0xb5,0xaf,0xd8,0x01,0xd4,0xab,0x66,0x06,0x09,0x7b,0xea,0xd1,0x55,0x21,0xec,
0xd6,0xfa,0x02,0xf4,0xef,0xea,0x14,0xec,0x16,0x18,0x16,0x08,0xbb,0xeb,0x0b,0xf6,0xfe,0xee,0xe8,0x13,0xda,0xfa,0x0b,0xfa,0xfd,0xd2,0x35,0xe1,0xfd,0x08,0xe0,0x06,
0xf8,0x01,0x03,0x32,0xcd,0x01,0x1c,0xee,0x23,0xf6,0xfb,0x0b,0xf9,0x17,0xf1,0xe8,0x22,0xff,0x0a,0xe0,0x0d,0xd5,0xe0,0xde,0x00,0x10,0x18,0x0c,0xf5,0xe6,0xc9,0xf1,
0x1b,0x13,0xee,0x1e,0xf7,0x00,0x3a,0x28,0x0b,0x06,0xfd,0xab,0xcb,0x07,0xf9,0xef,0x07,0xff,0xdd,0xe6,0xf0,0x09,0xd7,0x44,0xdb,0x02,0xca,0xc3,0xef,0xee,0xc4,0x19,
0x1f,0xdd,0x16,0x0c,0x0f,0x59,0x0f,0x2f,0xec,0xc9,0x08,0xb5,0xdd,0x44,0x01,0xff,0x03,0x22,0xe8,0x18,0x0c,0x09,0x0d,0xd7,0x23,0x02,0x1d,0x18,0xdd,0xdd,0x2e,0xda,
0xff,0x37,0xf0,0xea,0x13,0x13,0xea,0x04,0xe4,0xfc,0x26,0x04,0x07,0x2e,0x0e,0xfe,0x13,0x17,0xfa,0xe6,0xfe,0x14,0xdc,0x17,0xfb,0x08,0xfd,0xea,0x2e,0x1f,0x0a,0xed,
0x0d,0x1a,0x03,0x10,0x09,0x01,0x1b,0x14,0xfb,0xdd,0xe6,0xe9,0xfa,0xca,0x09,0xe5,0x0e,0xe3,0xf0,0xf1,0x0e,0x0b,0xe8,0x19,0x0f,0x16,0xd6,0x15,0xe3,0x3e,0xec,0x02,
0x06,0xb6,0x05,0xde,0x1b,0xfd,0x01,0xfd,0x00,0xe3,0xe1,0xc6,0xfa,0x1d,0xf3,0x39,0x04,0x16,0xd7,0x18,0xf0,0x18,0xeb,0xf5,0xfc,0xfe,0xd2,0x19,0xdb,0x03,0x14,0x9d,
0xfa,0xe1,0x12,0x0a,0xfb,0xee,0x10,0xef,0x13,0xfc,0xf3,0x3d,0xf8,0xbd,0xfb,0xf5,0x11,0xf7,0x24,0xff,0xf6,0xff,0x0f,0xf9,0xf1,0x00,0x24,0xfe,0xf1,0xef,0xea,0xfe,
0x20,0xf0,0x0b,0xf2,0x00,0x1f,0xf6,0x16,0xe5,0xff,0xef,0x33,0x25,0x20,0x0d,0xff,0x08,0x05,0x10,0xfd,0x1f,0x02,0xd1,0x0e,0xf5,0x23,0xf1,0x18,0xed,0x06,0x17,0x00,
0x1e,0x09,0x0c,0xf7,0xfa,0x09,0xdc,0x18,0xf8,0x0a,0xfa,0x5f,0x23,0xfb,0xff,0xfe,0xfd,0xe4,0x21,0xf3,0x34,0xe6,0xd3,0x02,0x03,0x35,0x24,0x0c,0xf5,0xcf,0xf7,0xf2,
0x07,0x17,0xff,0x07,0xeb,0x0d,0x0a,0xfd,0x03,0xf7,0xbe,0x0c,0x10,0xc9,0xf9,0xd9,0x16,0xe7,0x21,0xef,0xfc,0xe7,0x10,0x1b,0xe6,0x11,0xf4,0x08,0x10,0x03,0xf1,0xd1,
0x00,0x00,0x00,0x00,0x00,0x00,0x00,0x00,0x00,0x00,0x00,0x00,0x00,0x00,0x00,0x00,0x00,0x00,0x00,0x00,0x00,0x00,0x00,0x00,0x00,0x00,0x00,0x00,0x00,0x00,0x00,0x00,
};
DEFINE_TENSOR(layer_211_convolution_filters, 1, 2, 1024, layer_211_convolution_filters_data)
__attribute__((aligned(4))) 
static const unsigned char layer_211_convolution_requantize_data[] = {
0x0d,0xbf,0x07,0x3c,0x00,0x00,0x00,0x00,0x00,0x00,0x00,0x00,0x00,0x00,0x00,0x00,0x00,0x00,0x00,0x00,0x00,0x00,0x00,0x00,0x00,0x00,0x00,0x00,0x00,0x00,0x00,0x00,
0x00,0x00,0x00,0x00,0x00,0x00,0x00,0x00,0x00,0x00,0x00,0x00,0x00,0x00,0x00,0x00,0x00,0x00,0x00,0x00,0x00,0x00,0x00,0x00,0x00,0x00,0x00,0x00,0x00,0x00,0x00,0x00,
0x00,0x00,0x00,0x00,0x00,0x00,0x00,0x00,0x00,0x00,0x00,0x00,0x00,0x00,0x00,0x00,0x00,0x00,0x00,0x00,0x00,0x00,0x00,0x00,0x00,0x00,0x00,0x00,0x00,0x00,0x00,0x00,
0x00,0x00,0x00,0x00,0x00,0x00,0x00,0x00,0x00,0x00,0x00,0x00,0x00,0x00,0x00,0x00,0x00,0x00,0x00,0x00,0x00,0x00,0x00,0x00,0x00,0x00,0x00,0x00,0x00,0x00,0x00,0x00,
0x00,0x00,0x00,0x00,};
DEFINE_TENSOR(layer_211_convolution_requantize, 4, 1, 4, layer_211_convolution_requantize_data)
__attribute__((aligned(4))) 
static const unsigned char layer_214_convolution_bias_data[] = {
0xff,0xff,0xff,0xff,0xfe,0xff,0xff,0xff,0xfb,0xff,0xff,0xff,0x06,0x00,0x00,0x00,0x00,0x00,0x00,0x00,0x01,0x00,0x00,0x00,0x06,0x00,0x00,0x00,0xfe,0xff,0xff,0xff,
0x03,0x00,0x00,0x00,0xfc,0xff,0xff,0xff,0xff,0xff,0xff,0xff,0xfe,0xff,0xff,0xff,0x05,0x00,0x00,0x00,0x01,0x00,0x00,0x00,0x03,0x00,0x00,0x00,0x08,0x00,0x00,0x00,
0x05,0x00,0x00,0x00,0x09,0x00,0x00,0x00,0x0a,0x00,0x00,0x00,0xfe,0xff,0xff,0xff,0xfd,0xff,0xff,0xff,0xf8,0xff,0xff,0xff,0x01,0x00,0x00,0x00,0xf7,0xff,0xff,0xff,
0xff,0xff,0xff,0xff,0xff,0xff,0xff,0xff,0xfb,0xff,0xff,0xff,0xfe,0xff,0xff,0xff,0x03,0x00,0x00,0x00,0x04,0x00,0x00,0x00,0x00,0x00,0x00,0x00,0xfd,0xff,0xff,0xff,
0x00,0x00,0x00,0x00,0x00,0x00,0x00,0x00,0x00,0x00,0x00,0x00,0x00,0x00,0x00,0x00,0x00,0x00,0x00,0x00,0x00,0x00,0x00,0x00,0x00,0x00,0x00,0x00,0x00,0x00,0x00,0x00,
0x00,0x00,0x00,0x00,0x00,0x00,0x00,0x00,0x00,0x00,0x00,0x00,0x00,0x00,0x00,0x00,0x00,0x00,0x00,0x00,0x00,0x00,0x00,0x00,0x00,0x00,0x00,0x00,0x00,0x00,0x00,0x00,
0x00,0x00,0x00,0x00,0x00,0x00,0x00,0x00,0x00,0x00,0x00,0x00,0x00,0x00,0x00,0x00,0x00,0x00,0x00,0x00,0x00,0x00,0x00,0x00,0x00,0x00,0x00,0x00,0x00,0x00,0x00,0x00,
0x00,0x00,0x00,0x00,0x00,0x00,0x00,0x00,0x00,0x00,0x00,0x00,0x00,0x00,0x00,0x00,0x00,0x00,0x00,0x00,0x00,0x00,0x00,0x00,0x00,0x00,0x00,0x00,0x00,0x00,0x00,0x00,
};
DEFINE_TENSOR(layer_214_convolution_bias, 4, 4, 128, layer_214_convolution_bias_data)
__attribute__((aligned(4))) 
static const unsigned char layer_214_convolution_filters_data[] = {
0xee,0x00,0xec,0x20,0x6f,0x0f,0xfe,0x8c,0x03,0x1c,0xa3,0x36,0x26,0xf2,0x1f,0x11,0x3a,0xc7,0x04,0xde,0xec,0x53,0x01,0xc7,0x6a,0x22,0xef,0xe9,0xfc,0xf0,0x01,0xe8,
0xe9,0xf1,0xee,0xe9,0x09,0x0e,0x28,0x01,0xf9,0x1a,0xf4,0x05,0xf6,0x04,0x02,0x07,0x00,0x10,0x12,0x01,0x0f,0x17,0xec,0x1c,0xc5,0x05,0x06,0xc2,0xf1,0xf1,0xde,0x13,
0xea,0xf5,0x14,0x16,0xfc,0x19,0x20,0xf0,0x0e,0x17,0x41,0x0b,0x0b,0x34,0xdf,0xae,0x9c,0x09,0x27,0x02,0x15,0x31,0x06,0x0d,0x0d,0xfe,0x00,0x10,0x05,0x13,0x21,0x15,
0x19,0x0f,0x10,0xd4,0x13,0x1a,0xf7,0x0f,0x39,0xf7,0xe8,0x63,0x08,0x0a,0xf3,0x2d,0xe6,0xce,0x3c,0xee,0xb4,0xe4,0xdc,0x40,0xb0,0xc7,0x59,0xd1,0xe1,0x52,0x01,0xc5,
0x2c,0x03,0x95,0x48,0xfc,0xab,0x43,0x0d,0xf9,0x04,0xdf,0xdd,0xbd,0xf7,0xfe,0xf3,0x03,0x18,0xef,0xe5,0x5d,0x9c,0x00,0x1e,0xab,0x09,0x21,0xfc,0xd5,0xda,0xda,0xca,
0xe5,0x05,0xff,0xf6,0x0b,0x02,0xcd,0xf5,0xf6,0xd0,0xe6,0x02,0x0f,0x0a,0x2f,0x2e,0xfa,0x1d,0x0c,0x20,0x13,0xff,0x10,0x06,0x01,0x06,0xfc,0xff,0x1a,0xf8,0x0e,0x2b,
0xef,0x07,0x4b,0xdf,0x0e,0x64,0xf4,0x1f,0x0e,0x3c,0x41,0x34,0xe3,0x8c,0xc1,0xfe,0x07,0x25,0x16,0x04,0x2e,0x16,0x1a,0x19,0x19,0xff,0xff,0x14,0x36,0xdd,0xfd,0x15,
0xd0,0x2e,0xf5,0xf2,0x29,0x0b,0xda,0x1a,0x34,0xc9,0x1c,0x10,0xf6,0x15,0x27,0x0f,0x1a,0x1a,0xe9,0xef,0xdb,0x5c,0xd9,0xcb,0x68,0xe1,0xfc,0x1e,0x30,0x1d,0xbb,0x45,
0x35,0x81,0x2f,0xea,0xb0,0x01,0xf8,0x00,0xa8,0xc2,0xb1,0x34,0x39,0x36,0x08,0x02,0x0b,0x10,0x13,0x07,0x10,0x13,0x04,0x13,0x18,0xec,0x20,0x58,0x9f,0x27,0x3a,0xa5,
0x00,0x00,0x00,0x00,0x00,0x00,0x00,0x00,0x00,0x00,0x00,0x00,0x00,0x00,0x00,0x00,0x00,0x00,0x00,0x00,0x00,0x00,0x00,0x00,0x00,0x00,0x00,0x00,0x00,0x00,0x00,0x00,
};
DEFINE_TENSOR(layer_214_convolution_filters, 1, 2, 288, layer_214_convolution_filters_data)
__attribute__((aligned(4))) 
static const unsigned char layer_214_convolution_requantize_data[] = {
0x5b,0xd2,0x1e,0x3c,0x00,0x00,0x00,0x00,0x00,0x00,0x00,0x00,0x00,0x00,0x00,0x00,0x00,0x00,0x00,0x00,0x00,0x00,0x00,0x00,0x00,0x00,0x00,0x00,0x00,0x00,0x00,0x00,
0x00,0x00,0x00,0x00,0x00,0x00,0x00,0x00,0x00,0x00,0x00,0x00,0x00,0x00,0x00,0x00,0x00,0x00,0x00,0x00,0x00,0x00,0x00,0x00,0x00,0x00,0x00,0x00,0x00,0x00,0x00,0x00,
0x00,0x00,0x00,0x00,0x00,0x00,0x00,0x00,0x00,0x00,0x00,0x00,0x00,0x00,0x00,0x00,0x00,0x00,0x00,0x00,0x00,0x00,0x00,0x00,0x00,0x00,0x00,0x00,0x00,0x00,0x00,0x00,
0x00,0x00,0x00,0x00,0x00,0x00,0x00,0x00,0x00,0x00,0x00,0x00,0x00,0x00,0x00,0x00,0x00,0x00,0x00,0x00,0x00,0x00,0x00,0x00,0x00,0x00,0x00,0x00,0x00,0x00,0x00,0x00,
0x00,0x00,0x00,0x00,};
DEFINE_TENSOR(layer_214_convolution_requantize, 4, 1, 4, layer_214_convolution_requantize_data)
__attribute__((aligned(4))) 
static const unsigned char layer_217_convolution_bias_data[] = {
0x00,0x00,0x00,0x00,0x06,0x00,0x00,0x00,0x04,0x00,0x00,0x00,0x01,0x00,0x00,0x00,0xff,0xff,0xff,0xff,0x00,0x00,0x00,0x00,0xf9,0xff,0xff,0xff,0xfc,0xff,0xff,0xff,
0x04,0x00,0x00,0x00,0xfc,0xff,0xff,0xff,0x02,0x00,0x00,0x00,0xf6,0xff,0xff,0xff,0x01,0x00,0x00,0x00,0x06,0x00,0x00,0x00,0x0b,0x00,0x00,0x00,0x05,0x00,0x00,0x00,
0x04,0x00,0x00,0x00,0x0a,0x00,0x00,0x00,0x03,0x00,0x00,0x00,0xff,0xff,0xff,0xff,0xff,0xff,0xff,0xff,0xff,0xff,0xff,0xff,0x04,0x00,0x00,0x00,0xfb,0xff,0xff,0xff,
0xf9,0xff,0xff,0xff,0xf8,0xff,0xff,0xff,0xfc,0xff,0xff,0xff,0x08,0x00,0x00,0x00,0xfe,0xff,0xff,0xff,0xfc,0xff,0xff,0xff,0xfb,0xff,0xff,0xff,0xed,0xff,0xff,0xff,
0x00,0x00,0x00,0x00,0x00,0x00,0x00,0x00,0x00,0x00,0x00,0x00,0x00,0x00,0x00,0x00,0x00,0x00,0x00,0x00,0x00,0x00,0x00,0x00,0x00,0x00,0x00,0x00,0x00,0x00,0x00,0x00,
0x00,0x00,0x00,0x00,0x00,0x00,0x00,0x00,0x00,0x00,0x00,0x00,0x00,0x00,0x00,0x00,0x00,0x00,0x00,0x00,0x00,0x00,0x00,0x00,0x00,0x00,0x00,0x00,0x00,0x00,0x00,0x00,
0x00,0x00,0x00,0x00,0x00,0x00,0x00,0x00,0x00,0x00,0x00,0x00,0x00,0x00,0x00,0x00,0x00,0x00,0x00,0x00,0x00,0x00,0x00,0x00,0x00,0x00,0x00,0x00,0x00,0x00,0x00,0x00,
0x00,0x00,0x00,0x00,0x00,0x00,0x00,0x00,0x00,0x00,0x00,0x00,0x00,0x00,0x00,0x00,0x00,0x00,0x00,0x00,0x00,0x00,0x00,0x00,0x00,0x00,0x00,0x00,0x00,0x00,0x00,0x00,
};
DEFINE_TENSOR(layer_217_convolution_bias, 4, 4, 128, layer_217_convolution_bias_data)
__attribute__((aligned(4))) 
static const unsigned char layer_217_convolution_filters_data[] = {
0xed,0x0b,0x01,0x1a,0xed,0x1c,0x27,0xe5,0xc3,0x0a,0x06,0x1e,0x0a,0xd2,0x23,0xd6,0x20,0x0c,0x0c,0x08,0x19,0xe1,0xc0,0xf7,0x08,0xf1,0xe5,0x22,0x03,0xe7,0x30,0x17,
0xf8,0x06,0xe9,0xf7,0x04,0xbd,0x00,0xe6,0x05,0x01,0xed,0xfc,0x0e,0xf5,0xf4,0x10,0xed,0xfe,0x34,0x22,0xdd,0xf7,0xdf,0x10,0x04,0x16,0x01,0xfd,0x10,0xfa,0xcb,0xf9,
0xf2,0xf6,0x17,0x3b,0x0d,0x93,0xdf,0x1d,0xe5,0x4b,0xee,0x1a,0xf6,0xe4,0x0e,0x1b,0x09,0x06,0xd7,0xf7,0x62,0xe6,0xd3,0x2b,0x0e,0xe0,0x34,0xed,0x40,0xee,0xd4,0xf4,
0xf9,0xfe,0x03,0x1d,0x1e,0xae,0xe4,0xec,0xe2,0xfa,0x2e,0xdd,0x42,0x03,0x13,0xde,0xe6,0x03,0x0c,0xe1,0xed,0xf8,0xed,0xd8,0xfa,0x23,0x03,0xe8,0x16,0xc3,0x4a,0x35,
0x09,0xf5,0xef,0xf3,0x0b,0x1e,0xf3,0x14,0x1c,0xe7,0x39,0x05,0x14,0xf9,0x16,0xee,0x03,0x05,0xe0,0xf1,0xf9,0xf6,0x0b,0xde,0x08,0x06,0x02,0xfc,0xfc,0x06,0x29,0x1f,
0x10,0x05,0xee,0x00,0x0a,0x13,0xfe,0xfc,0x0b,0xdc,0x04,0x1b,0xfe,0x00,0x01,0xf3,0x0f,0x07,0xe1,0x02,0x15,0x07,0x09,0xde,0xea,0xf8,0xf5,0x0b,0xf8,0x14,0x58,0xf4,
0xfb,0xe4,0x16,0x09,0xfa,0x02,0x24,0xde,0xe0,0x46,0x3b,0xd6,0x2b,0x32,0x13,0xfa,0x1c,0x04,0x00,0x1a,0x0c,0xfa,0xdd,0xfd,0x26,0xf8,0xf6,0x12,0x2a,0xf5,0x17,0x13,
0x12,0xf8,0xe7,0x42,0xce,0x1e,0xff,0xd2,0x38,0xe4,0xf7,0xf7,0xd8,0xd8,0x09,0xf9,0xf7,0xfa,0x08,0x2c,0x1a,0xf1,0x19,0x00,0xf7,0x21,0xf8,0xf3,0xd2,0x0a,0x7c,0x08,
0xb5,0xdd,0xff,0xea,0xcd,0x27,0x06,0x0e,0xe5,0x04,0xe2,0x27,0x24,0x2b,0xef,0xe0,0xed,0x2b,0xfd,0x00,0xfb,0xe7,0x10,0x0e,0xd4,0x34,0x23,0x06,0xea,0xcc,0x19,0x06,
0x0b,0x39,0xcf,0xfd,0x17,0x01,0x05,0x03,0xf8,0xe5,0x1b,0x24,0x22,0xf4,0x20,0xf9,0x2d,0xef,0xe5,0x1d,0xfb,0xf2,0x04,0xdc,0x36,0x23,0xc4,0x11,0x20,0x03,0xfc,0x38,
0xf0,0xe2,0xf4,0x12,0xfd,0x27,0xf9,0x04,0xe2,0xba,0xfc,0x0e,0x14,0x03,0x17,0xd2,0x0a,0x2e,0x10,0x25,0x09,0x05,0xcd,0xfa,0xdd,0xce,0xeb,0x0c,0xf5,0xef,0x03,0x14,
0x06,0x0b,0x01,0x0b,0xec,0xd8,0x14,0x07,0x0e,0x0c,0x1e,0xf5,0x05,0x02,0x68,0x13,0xe2,0x04,0x0b,0x0a,0xfb,0xea,0x0f,0xfc,0x02,0xd6,0x14,0x21,0x21,0x07,0x56,0x29,
0x2e,0x20,0xec,0x15,0xd7,0x35,0x21,0x01,0xf7,0xe3,0xea,0x24,0xe9,0xbb,0xfa,0xe6,0x27,0x13,0xaa,0x00,0x36,0xd0,0x0d,0x07,0xf3,0xfe,0xcf,0x2e,0x22,0x32,0x2a,0xe4,
0xdb,0x13,0xfb,0x08,0xfd,0x24,0x1e,0xf0,0xe4,0xfe,0xf8,0x31,0x0b,0x1a,0x0e,0xcd,0x02,0x06,0x00,0x17,0x12,0xc8,0xd5,0xf3,0xfe,0xfe,0xde,0xf7,0xfd,0xe4,0x25,0x0d,
0x0d,0xf5,0xca,0xe4,0xf1,0xf5,0x21,0xab,0x20,0xcb,0x29,0xf3,0xe5,0x3d,0xf3,0xe9,0x08,0xd4,0xff,0xba,0x09,0xe5,0xe3,0x16,0x56,0xea,0xce,0xe4,0x11,0xe2,0x2f,0xc0,
0xf2,0xf9,0x0a,0x0a,0x43,0xba,0xf6,0x11,0xfb,0xef,0xfa,0xef,0xf3,0xe1,0xf1,0x1d,0xe1,0xfd,0xef,0x19,0x00,0x02,0x01,0xee,0xe1,0xf8,0xfe,0xe1,0xfa,0x4d,0xf5,0xda,
0x12,0x1d,0xe8,0x1c,0xf1,0xf4,0xff,0xe8,0x0b,0xd6,0x9e,0xf9,0xd2,0xfe,0xf8,0xd4,0xe6,0x19,0xec,0x13,0x00,0x1c,0x16,0xf5,0xd6,0x72,0x09,0xdd,0xf6,0xd4,0x42,0xfa,
0x0f,0x02,0xef,0xf0,0x05,0x10,0xe3,0x10,0x08,0xdf,0xf1,0xe2,0xfd,0xe9,0xe8,0xfc,0xda,0x12,0xfa,0x3a,0xf5,0x01,0xfe,0xf2,0xe7,0xbb,0xd5,0xf2,0xe7,0x0c,0x13,0x20,
0x11,0x14,0x13,0xd5,0xd3,0x0e,0xee,0xed,0x15,0x45,0xd7,0xe9,0xdd,0xed,0xf8,0x0f,0xf9,0xcf,0xf7,0xf5,0x24,0x41,0x18,0x26,0x0d,0x36,0x0e,0xf6,0xeb,0xec,0x06,0xb8,
0xfd,0x48,0x0a,0x03,0xfd,0xf4,0xf2,0x09,0x17,0xee,0xdc,0xe4,0xd9,0x27,0x42,0x13,0x12,0xfa,0x2c,0xfc,0xfe,0x09,0xef,0xf3,0x02,0x4e,0x02,0x05,0x02,0xf5,0xf0,0x25,
0x0c,0xf1,0xda,0xff,0x1b,0x25,0xf5,0x23,0xeb,0xee,0x19,0x17,0xf9,0xe2,0x0a,0x02,0xff,0x03,0xe1,0xec,0x08,0xf1,0x0c,0x16,0x08,0x47,0x07,0xf8,0x06,0x21,0xf6,0xf0,
0x01,0xfa,0x02,0x25,0xef,0xe8,0x0d,0xed,0x0a,0x3f,0x0c,0xfd,0x04,0xd2,0xed,0x0d,0xf9,0xf2,0x1a,0xd5,0x11,0x51,0x02,0x26,0xe7,0xe1,0x16,0x13,0xd2,0x2b,0x05,0xe9,
0x0f,0x03,0xe9,0x06,0x2c,0x21,0xf3,0xe3,0x0e,0xf6,0x0e,0xe8,0xe9,0xda,0x0f,0x0e,0xf5,0xe8,0xea,0xf5,0xfa,0x09,0x01,0xea,0xff,0x05,0xee,0xf3,0xe1,0x1a,0x44,0x06,
0x55,0xfa,0x26,0x1f,0xb9,0x22,0xf9,0xfb,0xfb,0xdf,0x06,0x3c,0x12,0xfd,0x2c,0xe0,0x18,0x24,0xd4,0x1a,0x1a,0x2b,0x28,0xfa,0x13,0xd4,0xe2,0x02,0x81,0x30,0x07,0x25,
0xf5,0x38,0x14,0xff,0xf9,0xca,0xfd,0xe8,0x02,0xcd,0xdd,0xed,0xff,0x14,0x2a,0x12,0x16,0xfd,0x1f,0x19,0xeb,0x22,0xdc,0x11,0xe1,0x1f,0xf0,0x16,0x39,0xe7,0x2c,0x2d,
0x1d,0x1d,0xe0,0x25,0x36,0x01,0xdd,0x2d,0xf1,0xdc,0xf6,0xe2,0xf1,0x00,0x38,0xb7,0x32,0x1b,0x25,0x7f,0xdf,0x27,0xe6,0xe5,0x17,0x1c,0xf7,0x63,0x0c,0xea,0xdf,0x14,
0x13,0xfe,0x08,0xe2,0xf0,0xcc,0x0e,0x31,0xf0,0xc8,0xf7,0x5a,0x04,0x2e,0xdb,0x07,0x1d,0x25,0xe9,0x13,0xf4,0xe9,0xfc,0x0b,0xe0,0xdf,0x37,0x34,0x42,0x00,0x0b,0xcf,
0x0d,0xc5,0x09,0xdc,0x04,0x1a,0xea,0xef,0xef,0x2a,0xf3,0xd4,0xd4,0x24,0xf1,0xfd,0xf4,0x12,0xfc,0x11,0x03,0xfd,0xd3,0xe5,0xf2,0x44,0x18,0xef,0x04,0xe0,0x28,0xe6,
0x09,0xfe,0xf2,0x10,0x04,0x3d,0x07,0x16,0xeb,0x17,0x09,0xf6,0xf4,0xef,0x23,0xd9,0x20,0x1a,0xfa,0x25,0xff,0xf7,0x04,0xf7,0x01,0x2d,0x03,0xf7,0x0b,0x08,0xfa,0x09,
0xed,0x18,0x06,0xe2,0xcf,0xcf,0xf5,0xfe,0xf6,0x22,0x2b,0x02,0x2a,0x1c,0x3d,0xe5,0xf5,0xfc,0xed,0xf6,0xf2,0x02,0x16,0xec,0x21,0xea,0x60,0xfc,0x1b,0x07,0x22,0xfd,
0x07,0xf1,0x01,0x07,0x20,0x3b,0xe1,0xec,0x22,0x14,0x3d,0x17,0xff,0xf8,0x1f,0xeb,0xf2,0xdb,0x03,0x0f,0x37,0x2a,0xd2,0x18,0xe6,0x07,0xf6,0x19,0x05,0xea,0x25,0xfe,
0x0a,0x23,0x2f,0x12,0xd2,0x09,0x1f,0x0b,0x1b,0xfd,0x01,0x32,0x23,0x18,0xd3,0xe7,0x09,0xf7,0x50,0x0e,0x0b,0x29,0xf1,0x23,0x24,0x24,0xfb,0x1b,0x04,0x06,0x2b,0xf8,
0x00,0x00,0x00,0x00,0x00,0x00,0x00,0x00,0x00,0x00,0x00,0x00,0x00,0x00,0x00,0x00,0x00,0x00,0x00,0x00,0x00,0x00,0x00,0x00,0x00,0x00,0x00,0x00,0x00,0x00,0x00,0x00,
};
DEFINE_TENSOR(layer_217_convolution_filters, 1, 2, 1024, layer_217_convolution_filters_data)
__attribute__((aligned(4))) 
static const unsigned char layer_217_convolution_requantize_data[] = {
0x2e,0x46,0x38,0x3c,0x00,0x00,0x00,0x00,0x00,0x00,0x00,0x00,0x00,0x00,0x00,0x00,0x00,0x00,0x00,0x00,0x00,0x00,0x00,0x00,0x00,0x00,0x00,0x00,0x00,0x00,0x00,0x00,
0x00,0x00,0x00,0x00,0x00,0x00,0x00,0x00,0x00,0x00,0x00,0x00,0x00,0x00,0x00,0x00,0x00,0x00,0x00,0x00,0x00,0x00,0x00,0x00,0x00,0x00,0x00,0x00,0x00,0x00,0x00,0x00,
0x00,0x00,0x00,0x00,0x00,0x00,0x00,0x00,0x00,0x00,0x00,0x00,0x00,0x00,0x00,0x00,0x00,0x00,0x00,0x00,0x00,0x00,0x00,0x00,0x00,0x00,0x00,0x00,0x00,0x00,0x00,0x00,
0x00,0x00,0x00,0x00,0x00,0x00,0x00,0x00,0x00,0x00,0x00,0x00,0x00,0x00,0x00,0x00,0x00,0x00,0x00,0x00,0x00,0x00,0x00,0x00,0x00,0x00,0x00,0x00,0x00,0x00,0x00,0x00,
0x00,0x00,0x00,0x00,};
DEFINE_TENSOR(layer_217_convolution_requantize, 4, 1, 4, layer_217_convolution_requantize_data)
__attribute__((aligned(4))) 
static const unsigned char layer_220_convolution_bias_data[] = {
0x00,0x00,0x00,0x00,0xf6,0xff,0xff,0xff,0x08,0x00,0x00,0x00,0xfe,0xff,0xff,0xff,0x00,0x00,0x00,0x00,0xff,0xff,0xff,0xff,0x01,0x00,0x00,0x00,0x01,0x00,0x00,0x00,
0xfb,0xff,0xff,0xff,0xfd,0xff,0xff,0xff,0xf9,0xff,0xff,0xff,0x00,0x00,0x00,0x00,0x00,0x00,0x00,0x00,0x03,0x00,0x00,0x00,0x08,0x00,0x00,0x00,0xfb,0xff,0xff,0xff,
0x00,0x00,0x00,0x00,0xfa,0xff,0xff,0xff,0x0a,0x00,0x00,0x00,0x12,0x00,0x00,0x00,0x06,0x00,0x00,0x00,0xfd,0xff,0xff,0xff,0x05,0x00,0x00,0x00,0x0d,0x00,0x00,0x00,
0xfa,0xff,0xff,0xff,0xfb,0xff,0xff,0xff,0xff,0xff,0xff,0xff,0xff,0xff,0xff,0xff,0x00,0x00,0x00,0x00,0x05,0x00,0x00,0x00,0x07,0x00,0x00,0x00,0xfc,0xff,0xff,0xff,
0x00,0x00,0x00,0x00,0x00,0x00,0x00,0x00,0x00,0x00,0x00,0x00,0x00,0x00,0x00,0x00,0x00,0x00,0x00,0x00,0x00,0x00,0x00,0x00,0x00,0x00,0x00,0x00,0x00,0x00,0x00,0x00,
0x00,0x00,0x00,0x00,0x00,0x00,0x00,0x00,0x00,0x00,0x00,0x00,0x00,0x00,0x00,0x00,0x00,0x00,0x00,0x00,0x00,0x00,0x00,0x00,0x00,0x00,0x00,0x00,0x00,0x00,0x00,0x00,
0x00,0x00,0x00,0x00,0x00,0x00,0x00,0x00,0x00,0x00,0x00,0x00,0x00,0x00,0x00,0x00,0x00,0x00,0x00,0x00,0x00,0x00,0x00,0x00,0x00,0x00,0x00,0x00,0x00,0x00,0x00,0x00,
0x00,0x00,0x00,0x00,0x00,0x00,0x00,0x00,0x00,0x00,0x00,0x00,0x00,0x00,0x00,0x00,0x00,0x00,0x00,0x00,0x00,0x00,0x00,0x00,0x00,0x00,0x00,0x00,0x00,0x00,0x00,0x00,
};
DEFINE_TENSOR(layer_220_convolution_bias, 4, 4, 128, layer_220_convolution_bias_data)
__attribute__((aligned(4))) 
static const unsigned char layer_220_convolution_filters_data[] = {
0x24,0x2b,0x0c,0x1f,0x3b,0x23,0x01,0x0c,0x0f,0x59,0x67,0xe9,0xe1,0x7f,0x0f,0x60,0xfe,0xf5,0xc2,0xfd,0xcb,0xfa,0xe0,0xc3,0xf8,0xd2,0xe0,0x18,0x28,0xf5,0x31,0x05,
0xe5,0x32,0xe3,0xc8,0xe4,0x0b,0x0f,0x1e,0x1f,0x2d,0xee,0x15,0x26,0xeb,0xbb,0xaa,0x2f,0x08,0xd4,0x54,0x6b,0x25,0x0b,0x04,0xf6,0x27,0x2c,0x0b,0x14,0x2a,0x18,0x15,
0x35,0x21,0x1e,0x28,0x0f,0x04,0xf0,0xf1,0x16,0x17,0x05,0x1b,0x30,0x18,0x1d,0x27,0x0e,0x1d,0x36,0x26,0x10,0x20,0x16,0xf0,0xf5,0xf8,0xf8,0x3a,0x57,0x14,0x65,0x5d,
0x16,0x32,0x34,0x42,0x35,0x9f,0x10,0x3a,0x04,0xe1,0x9c,0x0d,0x12,0x1b,0x16,0x19,0x29,0x26,0x03,0x04,0x0e,0xf8,0xe1,0xed,0x0e,0x1b,0x1d,0x14,0x40,0x3b,0xb5,0xc7,
0xf0,0xf1,0xc9,0xb1,0x1e,0x24,0xe8,0x1d,0x09,0xe4,0x3b,0x55,0x37,0x0b,0x35,0x34,0x0e,0x22,0x09,0x00,0x2b,0x27,0xe8,0x1a,0x26,0x2d,0x3a,0xe0,0x0e,0x23,0x36,0x1c,
0x1c,0x20,0xde,0xd8,0xe4,0xd5,0xdc,0x00,0xd9,0xda,0x13,0x0a,0xf8,0xe8,0xd9,0xbc,0xde,0xc7,0xcd,0xe9,0xb4,0xcd,0xbd,0xf0,0xcd,0xe4,0x15,0x45,0x45,0x21,0x62,0x4b,
0x1c,0x2d,0x28,0xc6,0xb9,0xa0,0x54,0x51,0xd4,0x3a,0x0b,0xa8,0x12,0xe5,0x8d,0xd8,0xd7,0xe7,0xaf,0xd8,0xf2,0xc9,0xdd,0xfb,0x19,0x28,0x14,0x16,0x40,0x44,0x04,0x2d,
0x35,0x19,0x15,0x09,0x0a,0x21,0x1b,0x21,0x21,0x08,0xfd,0x0d,0x13,0x0d,0x2e,0x24,0x17,0x37,0x1a,0x1b,0x15,0xff,0x3a,0x1f,0xf7,0x27,0x04,0xdc,0xed,0xb2,0xb7,0x11,
0x07,0xfd,0x2d,0x5f,0x39,0xd1,0xf0,0x06,0xc2,0x1d,0x1e,0xcf,0xe4,0x0c,0xdc,0xd4,0xd5,0x05,0xee,0x0b,0xe9,0x04,0xe8,0x0c,0x1f,0x0f,0x1f,0x3b,0x21,0x14,0x1d,0x14,
0x00,0x00,0x00,0x00,0x00,0x00,0x00,0x00,0x00,0x00,0x00,0x00,0x00,0x00,0x00,0x00,0x00,0x00,0x00,0x00,0x00,0x00,0x00,0x00,0x00,0x00,0x00,0x00,0x00,0x00,0x00,0x00,
};
DEFINE_TENSOR(layer_220_convolution_filters, 1, 2, 288, layer_220_convolution_filters_data)
__attribute__((aligned(4))) 
static const unsigned char layer_220_convolution_requantize_data[] = {
0x40,0xac,0xf1,0x3b,0x00,0x00,0x00,0x00,0x00,0x00,0x00,0x00,0x00,0x00,0x00,0x00,0x00,0x00,0x00,0x00,0x00,0x00,0x00,0x00,0x00,0x00,0x00,0x00,0x00,0x00,0x00,0x00,
0x00,0x00,0x00,0x00,0x00,0x00,0x00,0x00,0x00,0x00,0x00,0x00,0x00,0x00,0x00,0x00,0x00,0x00,0x00,0x00,0x00,0x00,0x00,0x00,0x00,0x00,0x00,0x00,0x00,0x00,0x00,0x00,
0x00,0x00,0x00,0x00,0x00,0x00,0x00,0x00,0x00,0x00,0x00,0x00,0x00,0x00,0x00,0x00,0x00,0x00,0x00,0x00,0x00,0x00,0x00,0x00,0x00,0x00,0x00,0x00,0x00,0x00,0x00,0x00,
0x00,0x00,0x00,0x00,0x00,0x00,0x00,0x00,0x00,0x00,0x00,0x00,0x00,0x00,0x00,0x00,0x00,0x00,0x00,0x00,0x00,0x00,0x00,0x00,0x00,0x00,0x00,0x00,0x00,0x00,0x00,0x00,
0x00,0x00,0x00,0x00,};
DEFINE_TENSOR(layer_220_convolution_requantize, 4, 1, 4, layer_220_convolution_requantize_data)
__attribute__((aligned(4))) 
static const unsigned char layer_223_convolution_bias_data[] = {
0xfe,0xff,0xff,0xff,0xfe,0xff,0xff,0xff,0xfd,0xff,0xff,0xff,0xfd,0xff,0xff,0xff,0xfe,0xff,0xff,0xff,0xfa,0xff,0xff,0xff,0x02,0x00,0x00,0x00,0x04,0x00,0x00,0x00,
0x04,0x00,0x00,0x00,0x0c,0x00,0x00,0x00,0xfd,0xff,0xff,0xff,0x0a,0x00,0x00,0x00,0xf0,0xff,0xff,0xff,0x08,0x00,0x00,0x00,0xff,0xff,0xff,0xff,0x09,0x00,0x00,0x00,
0x05,0x00,0x00,0x00,0x0a,0x00,0x00,0x00,0xf6,0xff,0xff,0xff,0xfe,0xff,0xff,0xff,0x01,0x00,0x00,0x00,0x00,0x00,0x00,0x00,0x0a,0x00,0x00,0x00,0x0b,0x00,0x00,0x00,
0x0e,0x00,0x00,0x00,0x11,0x00,0x00,0x00,0xfb,0xff,0xff,0xff,0x05,0x00,0x00,0x00,0xff,0xff,0xff,0xff,0xfc,0xff,0xff,0xff,0xfc,0xff,0xff,0xff,0x01,0x00,0x00,0x00,
0x0b,0x00,0x00,0x00,0xfe,0xff,0xff,0xff,0x01,0x00,0x00,0x00,0xfb,0xff,0xff,0xff,0x01,0x00,0x00,0x00,0x0e,0x00,0x00,0x00,0x13,0x00,0x00,0x00,0x0b,0x00,0x00,0x00,
0xfe,0xff,0xff,0xff,0xf7,0xff,0xff,0xff,0x00,0x00,0x00,0x00,0x09,0x00,0x00,0x00,0xfe,0xff,0xff,0xff,0x0e,0x00,0x00,0x00,0x10,0x00,0x00,0x00,0xfb,0xff,0xff,0xff,
0xfc,0xff,0xff,0xff,0xff,0xff,0xff,0xff,0x06,0x00,0x00,0x00,0x0c,0x00,0x00,0x00,0x0e,0x00,0x00,0x00,0xfa,0xff,0xff,0xff,0x03,0x00,0x00,0x00,0x10,0x00,0x00,0x00,
0x0c,0x00,0x00,0x00,0x10,0x00,0x00,0x00,0x01,0x00,0x00,0x00,0xfd,0xff,0xff,0xff,0xfa,0xff,0xff,0xff,0xfc,0xff,0xff,0xff,0x01,0x00,0x00,0x00,0x0a,0x00,0x00,0x00,
0x00,0x00,0x00,0x00,0x00,0x00,0x00,0x00,0x00,0x00,0x00,0x00,0x00,0x00,0x00,0x00,0x00,0x00,0x00,0x00,0x00,0x00,0x00,0x00,0x00,0x00,0x00,0x00,0x00,0x00,0x00,0x00,
0x00,0x00,0x00,0x00,0x00,0x00,0x00,0x00,0x00,0x00,0x00,0x00,0x00,0x00,0x00,0x00,0x00,0x00,0x00,0x00,0x00,0x00,0x00,0x00,0x00,0x00,0x00,0x00,0x00,0x00,0x00,0x00,
0x00,0x00,0x00,0x00,0x00,0x00,0x00,0x00,0x00,0x00,0x00,0x00,0x00,0x00,0x00,0x00,0x00,0x00,0x00,0x00,0x00,0x00,0x00,0x00,0x00,0x00,0x00,0x00,0x00,0x00,0x00,0x00,
0x00,0x00,0x00,0x00,0x00,0x00,0x00,0x00,0x00,0x00,0x00,0x00,0x00,0x00,0x00,0x00,0x00,0x00,0x00,0x00,0x00,0x00,0x00,0x00,0x00,0x00,0x00,0x00,0x00,0x00,0x00,0x00,
};
DEFINE_TENSOR(layer_223_convolution_bias, 4, 4, 256, layer_223_convolution_bias_data)
__attribute__((aligned(4))) 
static const unsigned char layer_223_convolution_filters_data[] = {
0x05,0xfa,0x18,0xff,0x17,0xfc,0x0d,0x0b,0xf3,0x26,0xe7,0xfa,0x15,0x26,0xfe,0x18,0x11,0x10,0xee,0xf9,0xe4,0xf5,0x07,0xfe,0x10,0x1d,0xff,0x12,0x26,0xfe,0xe5,0xfc,
0xfd,0xe5,0xe2,0xfb,0x29,0x3f,0xff,0x01,0xff,0xf7,0x14,0xf1,0x4b,0x16,0x0e,0xfd,0x05,0xfc,0xe5,0xfc,0xf8,0x19,0x1d,0xec,0xe5,0xe2,0x1b,0xd8,0x2d,0xed,0xe1,0xfe,
0xe5,0xf7,0xf8,0xee,0xde,0xf8,0xf3,0x5e,0xfa,0xed,0xfd,0xf1,0x2b,0x10,0xf8,0x35,0x0e,0x32,0x02,0x0f,0x1a,0x1d,0x2b,0xe0,0xca,0x0b,0x25,0xf6,0x11,0xff,0x19,0xdb,
0xa9,0x36,0xec,0x1a,0x4f,0xd6,0xd6,0x05,0x10,0x34,0xee,0xf0,0xd0,0x2b,0xf8,0x3e,0x2d,0x26,0x45,0x25,0xf7,0xd9,0xeb,0xfc,0xbe,0xe4,0x26,0xd8,0xb8,0x2f,0xe3,0x02,
0x2a,0xed,0x0c,0x1e,0x28,0x00,0x28,0x06,0xfc,0x03,0x1c,0x09,0x2b,0x0c,0xf9,0xc6,0xcf,0xff,0x25,0x01,0xe7,0xff,0x17,0xf4,0x2a,0x20,0xd7,0x13,0xf8,0xf7,0xef,0xc4,
0xf1,0xdd,0x08,0x17,0x31,0xf8,0xf5,0x23,0xd8,0x23,0x2b,0x02,0x26,0x3e,0xe8,0xff,0x13,0xe9,0x26,0xe9,0xfd,0x1d,0x1b,0xf6,0xec,0x1a,0x28,0x00,0x16,0x04,0xdc,0xd3,
0xef,0x16,0xf8,0x2d,0x30,0xc7,0x54,0xd6,0xfd,0x13,0x2e,0x1e,0xec,0xf2,0x00,0x14,0x10,0xe4,0x27,0xd7,0xd0,0xe1,0xe0,0xed,0xed,0x37,0x44,0x14,0xe5,0x0e,0xc3,0xfa,
0xfa,0xe4,0xf5,0xff,0x13,0x30,0xf8,0x3c,0xf1,0x0b,0x0e,0x0a,0x32,0xe6,0xfe,0x0d,0x0e,0x12,0x03,0xf8,0xee,0x04,0xe9,0x07,0xea,0x0b,0xf5,0x19,0x04,0x07,0x06,0x04,
0xc6,0x11,0x0f,0xe8,0xeb,0xf8,0xd9,0x0e,0xd8,0x1b,0xfc,0xef,0xf5,0xea,0xf9,0x18,0xfb,0x12,0x0f,0x03,0x0a,0x0d,0x40,0x0d,0x03,0xd7,0xfd,0x03,0xe6,0x08,0xf3,0x13,
0xc6,0x1c,0xf1,0xf0,0xf0,0x09,0xf2,0xe5,0xf2,0xfd,0xe4,0xfa,0xee,0xe5,0x0b,0xf3,0x15,0xe8,0xe7,0x13,0xf2,0x05,0xf1,0x0b,0xf0,0xf1,0xf9,0x09,0xf6,0xec,0x1f,0x08,
0x21,0x02,0xfc,0xe3,0x0c,0x26,0x0c,0x14,0x31,0xde,0x14,0xf4,0x20,0xe2,0x10,0xd6,0x39,0xfe,0xd4,0xc7,0xec,0xed,0x06,0x0d,0xeb,0xf7,0x35,0x07,0xf3,0x15,0x19,0x1b,
0xee,0xe8,0xe1,0x02,0x11,0xff,0x06,0xfd,0x41,0xd9,0xd5,0x28,0xef,0xff,0x09,0xee,0x10,0xb6,0xf4,0xf4,0xeb,0x01,0x0e,0xe9,0xdf,0xbe,0x32,0xed,0xf2,0x1b,0xed,0x17,
0xda,0x03,0xe7,0xfb,0x3b,0x2a,0x32,0x13,0x19,0xd0,0x16,0xde,0x09,0x3b,0x1f,0x07,0xf8,0x1c,0x43,0x15,0x01,0x3d,0x08,0xf1,0xef,0x00,0xd0,0xee,0x56,0x16,0x0b,0x20,
0x29,0xd5,0xcf,0xe3,0xbe,0x67,0x28,0x05,0xcc,0xfa,0x1b,0x13,0x69,0xd6,0x20,0x07,0xbe,0xe7,0xe4,0xcf,0x18,0xd0,0xe7,0x16,0xf0,0xfc,0x2b,0xe3,0x1a,0x12,0xf4,0xaf,
0xf2,0x00,0xed,0x04,0x07,0x3d,0x17,0xef,0x17,0xe7,0x0d,0xef,0x71,0x34,0x01,0x06,0xec,0x06,0xc9,0xc6,0xfe,0x00,0x23,0xe6,0xce,0xfb,0x12,0x0a,0x03,0x03,0xf9,0xee,
0xd9,0xfb,0x08,0xff,0xe3,0x12,0xdd,0x19,0xfc,0xf0,0xeb,0xfd,0xe1,0xfa,0x01,0x12,0xeb,0xfc,0xfd,0x10,0x0a,0x0b,0x14,0xef,0x0e,0xf8,0x03,0xd4,0xfe,0x0c,0x1f,0xfe,
0x05,0x2a,0x03,0xf3,0x9f,0x21,0x21,0xf3,0x09,0xc8,0x34,0x2a,0xdc,0x20,0xd6,0xe9,0x03,0xc1,0xa7,0x15,0xd4,0x18,0xff,0x2e,0xfd,0x23,0xae,0x65,0xcf,0x11,0x01,0xdb,
0xd1,0x08,0xe8,0xe8,0xea,0xea,0xfa,0xd7,0xfb,0xf4,0xdd,0xf0,0x1d,0xf8,0xf9,0xeb,0x10,0xee,0xf7,0xfd,0x26,0x0f,0xdc,0x16,0xe2,0xff,0x15,0xdd,0xea,0x25,0x1a,0xf4,
0x0c,0x3b,0x0f,0xea,0x1a,0x12,0x0e,0xf9,0x0d,0x43,0x4f,0x04,0x0f,0xff,0x15,0xf5,0x1c,0x12,0x20,0xe9,0xda,0xf5,0xfa,0xf7,0xd1,0x2e,0x14,0x10,0x1b,0x1b,0xf2,0xdc,
0xe8,0xfa,0xf5,0xfa,0x43,0x12,0x28,0x97,0x9f,0x07,0xb1,0xf2,0x3c,0x4a,0x15,0xfd,0x1f,0xe6,0x1e,0xcb,0x34,0x1e,0x1a,0xc3,0xf1,0x04,0xf6,0x13,0x4b,0x04,0x26,0xfe,
0xfb,0xdc,0xf9,0x06,0x17,0x15,0xf5,0x3d,0xfe,0xd9,0x27,0x03,0x0d,0x37,0xe1,0x19,0x05,0x4d,0x11,0x22,0x0a,0xf5,0xe6,0xd8,0xf9,0xf9,0xb9,0xfa,0xf5,0xf9,0xe2,0xc5,
0x03,0xde,0x1f,0xe2,0x16,0xef,0x02,0x9c,0x0d,0x26,0x01,0xf1,0x61,0x4a,0xe7,0xe7,0x1b,0x0e,0xfa,0xbc,0xe4,0x1a,0x03,0xf6,0x2e,0x2c,0xef,0xec,0xf8,0x29,0x0e,0xe8,
0xc2,0xde,0xf6,0xf7,0xe6,0xde,0xfd,0x2d,0xce,0x04,0xfb,0xf2,0x1f,0x07,0xf2,0xfe,0x06,0xee,0xf9,0x2e,0xeb,0xff,0x23,0xef,0xf6,0xec,0x07,0xf8,0xe5,0xe9,0x0b,0xd3,
0xda,0x00,0x0b,0x07,0x08,0x04,0xed,0xf5,0xe4,0xe6,0xd6,0xe9,0xf4,0xd0,0x0f,0x19,0xec,0xfd,0xf6,0x14,0x18,0x19,0xfa,0x01,0xea,0xdd,0xfd,0xfc,0xf7,0xe3,0xe6,0x1e,
0x51,0xd8,0xe8,0x01,0xc6,0xff,0xb3,0xf1,0xde,0xd4,0xf4,0xfb,0xf0,0x1c,0xfc,0xcb,0x07,0xed,0x0d,0xee,0xce,0x22,0xfb,0xfd,0x31,0xed,0xec,0xe6,0xf3,0x0c,0xfa,0xe4,
0xdb,0xc7,0xf2,0xd7,0xec,0x09,0xd1,0x55,0xe6,0x27,0x04,0x20,0x0d,0xcb,0xf3,0x12,0x0e,0xfb,0xef,0xed,0xf7,0xe2,0xfc,0xf9,0xdc,0x04,0x18,0xfb,0xe4,0xfe,0xeb,0xdf,
0x54,0xe5,0x1b,0x0e,0xc7,0xd3,0x07,0xdd,0x2b,0x06,0x2c,0xfa,0xd3,0x23,0x18,0xfd,0x0b,0xef,0x09,0xf5,0xf4,0xdb,0x08,0xef,0xfd,0x08,0x1d,0x10,0x1e,0x1b,0xeb,0x1a,
0x52,0xdf,0x00,0x02,0x4a,0x06,0x98,0x46,0xea,0x07,0x2a,0x15,0x14,0x89,0xf9,0xe0,0xfe,0x3b,0xff,0xcb,0xfa,0xfd,0xe1,0x04,0xed,0x06,0x08,0x10,0xc8,0x0f,0x05,0xf1,
0x58,0x21,0x03,0xd4,0xfe,0xd7,0xda,0xd2,0x0f,0x13,0x51,0xde,0xe4,0x2a,0x02,0x1f,0xb6,0xbf,0xe6,0xfe,0x12,0xd9,0x02,0x2b,0xe9,0x2f,0x19,0x0c,0x22,0x2d,0xf5,0xb9,
0x24,0xd6,0xe2,0x29,0x0d,0xf9,0x3c,0x1f,0x41,0xd7,0x18,0x08,0xdd,0xfd,0xe4,0xd9,0x25,0xfd,0x0b,0xe3,0xf3,0x04,0x2b,0x18,0xaf,0x13,0xf6,0x09,0xf3,0x15,0x23,0x01,
0xea,0x0a,0x1c,0x09,0x20,0xd3,0x0b,0x54,0xe9,0x14,0x04,0xfe,0x4a,0x1f,0xf0,0x1b,0xf8,0x11,0xd4,0xfa,0x12,0x03,0x0a,0xd4,0xf7,0xf9,0x15,0x00,0x07,0xe6,0xfe,0xe5,
0x14,0x0e,0x0c,0xdb,0xce,0x4d,0xa9,0x0d,0xff,0x2d,0xfa,0x43,0x09,0x1e,0x37,0xb4,0x0d,0x14,0x0e,0xcd,0x0e,0x02,0xf2,0xee,0x4e,0xdc,0x29,0xb8,0xd7,0x1d,0x11,0xe6,
0x1b,0x25,0xe6,0x09,0xca,0xcf,0xdf,0xc9,0xed,0xe8,0x07,0x02,0xe9,0x04,0xec,0xef,0xef,0xc8,0xe8,0x03,0x11,0x3a,0xfc,0xfd,0xf3,0x01,0x03,0xe5,0x07,0x04,0xfb,0x37,
0x40,0xe6,0x00,0xf6,0x06,0x20,0xd5,0x35,0xdb,0xfe,0x0b,0xfb,0x2f,0xf3,0xe3,0x07,0x0c,0x13,0x13,0x1d,0x05,0xe3,0x18,0x01,0xf6,0xf4,0x15,0x14,0xf2,0x20,0xd9,0xfd,
0x3c,0xea,0xf7,0xee,0xe0,0x25,0xc4,0x00,0x18,0xeb,0x14,0xfa,0x44,0x44,0xe8,0xe7,0x02,0x15,0xcf,0xf7,0xcc,0xea,0xf4,0xf0,0xf4,0xfd,0x04,0x1e,0x13,0xfd,0xec,0xfd,
0x36,0xef,0xef,0x00,0x09,0x0d,0x5d,0xd9,0xf9,0x16,0x11,0x2c,0x3b,0x02,0x0d,0xf8,0xb5,0xfe,0x03,0x13,0xf6,0xfd,0x0a,0xf6,0xf2,0x20,0x0e,0x0d,0x0e,0xfe,0xf5,0xb3,
0xef,0xda,0x23,0xf5,0x05,0x2f,0xbf,0x03,0xe5,0xe0,0xf8,0xf3,0x29,0x44,0xff,0xfe,0xf2,0x1a,0x09,0xe4,0x2b,0x2f,0xef,0xe0,0xeb,0xfe,0x04,0x02,0x40,0xeb,0x1d,0xbe,
0xe9,0xdf,0xe4,0xee,0xe4,0x24,0xd8,0x06,0x1a,0xf8,0xe7,0xf9,0x08,0xe1,0x15,0xf5,0xff,0xfd,0xc5,0x24,0x0f,0x1f,0xda,0x0d,0xbc,0xcf,0xf1,0x1c,0xea,0xd0,0xd0,0xfa,
0x37,0xe9,0x05,0xf9,0x07,0x1b,0xee,0xe1,0xa9,0xee,0x03,0x09,0xfb,0x66,0xc5,0xf0,0xdb,0xea,0xf2,0xb2,0xec,0x09,0xa7,0xd4,0x0a,0xfa,0xc0,0xd5,0xf9,0x03,0xd6,0xc8,
0xcc,0x14,0xf2,0xe5,0xfb,0xd8,0xe2,0xe2,0xea,0x06,0xe6,0xe7,0xe7,0xec,0x18,0xf9,0x14,0xfc,0xf7,0x06,0x02,0x0c,0x00,0xeb,0xee,0xe3,0x13,0xee,0x04,0x03,0x03,0x26,
0x35,0x00,0x1d,0xf8,0x1a,0xf0,0x16,0xe4,0x0f,0x15,0xf8,0xfa,0x1a,0x2a,0xf1,0xe1,0x14,0x0e,0xef,0xe4,0xf5,0xf7,0x02,0xf8,0x0e,0x0f,0xfa,0x0d,0xff,0xfd,0xea,0xe8,
0x30,0x10,0xf2,0xed,0xd0,0x13,0x00,0xfe,0x1e,0x10,0x18,0xd1,0x22,0x37,0xfb,0x0b,0x35,0xef,0x04,0xd2,0x04,0xf2,0xf7,0x1a,0x0c,0xff,0x1b,0xec,0xf9,0x0e,0xea,0x15,
0x55,0xc4,0xf3,0xdc,0x41,0xf0,0x02,0xe9,0x1b,0x1b,0x32,0xc4,0xd5,0x08,0xc8,0xd6,0x0a,0xfb,0x58,0x10,0xec,0xd8,0xe7,0xcd,0xf1,0x17,0x2a,0xd8,0xed,0x2c,0x0f,0xce,
0xd2,0x07,0x07,0xf4,0xdd,0xfe,0xe7,0x20,0xef,0xe8,0xf9,0xfe,0xeb,0xe7,0x17,0x09,0x07,0x0e,0xf9,0x0e,0x07,0xf2,0x10,0x03,0xf0,0xe4,0x06,0xf9,0x16,0xe1,0xfc,0xf1,
0xd7,0x07,0x2b,0x54,0xfd,0xc1,0xeb,0xe0,0x12,0xf5,0xf5,0x09,0x0e,0x16,0x2d,0xe3,0x1b,0x2c,0x1c,0xe1,0x14,0x14,0x0f,0xdf,0xf9,0x42,0xfe,0x6a,0x32,0xdc,0xda,0xc3,
0xec,0xe1,0xf8,0xfd,0xd1,0x0f,0xe8,0x17,0xd3,0xe5,0xe7,0xf5,0xf8,0xe5,0xe7,0x1e,0x03,0xfc,0xfc,0xfd,0x0a,0xd5,0xf6,0x05,0xeb,0x0b,0xe4,0xeb,0xf8,0x23,0xfe,0x03,
0xff,0xf3,0xe1,0x25,0x14,0xf5,0xfe,0x5f,0xa9,0x3c,0xe2,0xfc,0xe9,0xa4,0xf8,0xe9,0x05,0xbd,0xda,0xb9,0xea,0xd6,0x0e,0xed,0xf7,0x1f,0x0a,0x36,0xd2,0xf1,0xde,0x18,
0x54,0xec,0x0e,0xe3,0x0c,0x1b,0x13,0x01,0xf1,0xe7,0x16,0x04,0x17,0x3c,0xea,0xe6,0xd0,0x1b,0x00,0x26,0xe4,0xec,0x04,0xfc,0x00,0xec,0x0a,0x08,0xfd,0x1e,0x09,0xe4,
0xd3,0x04,0xeb,0x1c,0x33,0x1b,0x38,0x4e,0xf4,0xca,0x14,0x0a,0x4c,0xed,0xe9,0x09,0x3f,0xf4,0x16,0xe3,0x15,0x35,0xe1,0xf4,0xe8,0x06,0xfe,0x04,0xe2,0xe4,0xe1,0x08,
0x0b,0xd7,0xee,0xbe,0xb3,0x2b,0xe2,0x38,0xe8,0xfb,0x03,0x13,0x24,0xe5,0x14,0xf2,0xda,0xf5,0x12,0x13,0x01,0xfe,0x49,0x09,0xd6,0xf1,0x7f,0xd9,0xde,0x1e,0xe6,0x27,
0xd6,0xf5,0x33,0x2f,0x51,0x15,0xf4,0xfe,0x00,0x30,0x08,0xee,0xf7,0x53,0xd1,0xd9,0x05,0xe6,0x0a,0xbb,0xea,0x2d,0xec,0xba,0x5a,0x08,0xb9,0xbf,0x19,0xd6,0x0d,0xc6,
0xbf,0xde,0xed,0xfb,0x09,0x2d,0xdf,0xe2,0xc7,0xe9,0xf4,0x1d,0x20,0x1e,0xed,0x07,0xf6,0x0f,0xde,0xfa,0x09,0x22,0x00,0xb7,0xf1,0x09,0xfd,0xfd,0x22,0xe3,0xf7,0xe3,
0x3f,0xb4,0x2b,0x19,0xee,0x0f,0xf9,0xd2,0xef,0x5a,0xdd,0x22,0x32,0xed,0xce,0xdf,0x27,0x08,0xf2,0x83,0xf9,0x05,0x07,0xff,0x1c,0x22,0xea,0xe3,0xe5,0xce,0xe9,0xaa,
0xa0,0x15,0x1b,0x08,0x16,0xc4,0xc1,0x59,0x2a,0x07,0x61,0xe9,0x1d,0x2d,0xe1,0x20,0x23,0x09,0xff,0xd8,0xe7,0xfa,0x00,0x16,0xf5,0xed,0x2d,0x16,0xef,0x10,0xfc,0xd8,
0x2a,0xf6,0x13,0xd7,0xf6,0x2b,0x8d,0x27,0x08,0x15,0x0c,0x0f,0x25,0x0a,0xdf,0x16,0xca,0x19,0xec,0xff,0x0b,0x05,0xf8,0xf2,0xed,0xf7,0x1b,0xf3,0x1b,0x09,0x13,0xc0,
0xfa,0xea,0xe0,0xf0,0xf0,0x27,0xe2,0xd3,0xd7,0xf9,0xf4,0xf3,0xfa,0xd5,0xf6,0x00,0x09,0xdc,0xf5,0xf8,0x04,0x10,0x11,0x08,0xff,0xff,0x09,0xfd,0xfb,0xf1,0xf8,0xdf,
0xc9,0xc8,0x0d,0x0a,0xe6,0xf3,0xde,0x41,0xdf,0x09,0xee,0xd2,0x03,0xf1,0x0b,0x0b,0xf5,0xe9,0xfe,0xe8,0x00,0x0f,0x42,0xdd,0x41,0xee,0x20,0xf9,0xd4,0xe6,0xe1,0xe5,
0x3f,0xe4,0x36,0xec,0x1f,0xde,0xe7,0xcc,0xaa,0x41,0xeb,0xd5,0x9d,0x11,0xd4,0xe6,0x22,0xca,0x18,0x12,0xbf,0xb2,0xec,0xea,0xca,0x0a,0x1a,0xaf,0xde,0xe0,0xfd,0x37,
0xda,0x07,0x2b,0xf2,0xef,0x15,0xf3,0xf7,0xcc,0x52,0x54,0x2f,0xfd,0xd1,0xe9,0x03,0xc9,0x3b,0x2c,0xef,0x1c,0xed,0xf6,0xc9,0xfc,0x52,0x16,0x0c,0x06,0x27,0xde,0x10,
0x7d,0xe8,0x11,0x06,0xc3,0xeb,0xed,0x1d,0x41,0xd3,0x0f,0xd6,0xf3,0x37,0xe9,0xe0,0x21,0x0f,0x03,0xec,0x12,0xc4,0x12,0xfb,0xee,0x07,0xef,0x0f,0xdb,0x21,0xf0,0xd6,
0x33,0x13,0x06,0xfe,0x3c,0x3c,0xeb,0xdd,0x9f,0x3a,0xf9,0xdb,0xfd,0x20,0x34,0x26,0xfd,0x32,0x04,0xe1,0xd8,0x10,0xdf,0xec,0x12,0x3d,0x06,0x4c,0x05,0xf2,0x21,0xc9,
0x08,0x04,0x17,0x03,0x26,0x00,0xe3,0x35,0xc7,0x00,0x08,0xfc,0x31,0x0d,0xfa,0x1d,0xcf,0xed,0xff,0x37,0x13,0xdd,0xfa,0x0f,0xc5,0x1d,0xd0,0x5c,0x0a,0xf3,0xeb,0xe7,
0x13,0xc7,0x22,0x1d,0xfb,0x26,0xfb,0x30,0x10,0x1c,0x2c,0xf4,0xab,0xfb,0xe5,0xe6,0x3e,0x24,0x10,0xdd,0xeb,0x28,0x1f,0xba,0x55,0x0c,0xff,0xd8,0x0d,0xef,0xdb,0x11,
0x9e,0xd6,0x02,0x0d,0x3c,0x3b,0x0e,0x1c,0xeb,0xec,0xc6,0x01,0xe6,0xfb,0xf9,0xfe,0x48,0xda,0xe4,0xde,0x24,0x1e,0xe2,0xf5,0xf9,0xf9,0xf9,0xf1,0xe6,0x12,0xda,0x00,
0x00,0x00,0x00,0x00,0x00,0x00,0x00,0x00,0x00,0x00,0x00,0x00,0x00,0x00,0x00,0x00,0x00,0x00,0x00,0x00,0x00,0x00,0x00,0x00,0x00,0x00,0x00,0x00,0x00,0x00,0x00,0x00,
};
DEFINE_TENSOR(layer_223_convolution_filters, 1, 2, 2048, layer_223_convolution_filters_data)
__attribute__((aligned(4))) 
static const unsigned char layer_223_convolution_requantize_data[] = {
0xa6,0xe5,0xee,0x3b,0x00,0x00,0x00,0x00,0x00,0x00,0x00,0x00,0x00,0x00,0x00,0x00,0x00,0x00,0x00,0x00,0x00,0x00,0x00,0x00,0x00,0x00,0x00,0x00,0x00,0x00,0x00,0x00,
0x00,0x00,0x00,0x00,0x00,0x00,0x00,0x00,0x00,0x00,0x00,0x00,0x00,0x00,0x00,0x00,0x00,0x00,0x00,0x00,0x00,0x00,0x00,0x00,0x00,0x00,0x00,0x00,0x00,0x00,0x00,0x00,
0x00,0x00,0x00,0x00,0x00,0x00,0x00,0x00,0x00,0x00,0x00,0x00,0x00,0x00,0x00,0x00,0x00,0x00,0x00,0x00,0x00,0x00,0x00,0x00,0x00,0x00,0x00,0x00,0x00,0x00,0x00,0x00,
0x00,0x00,0x00,0x00,0x00,0x00,0x00,0x00,0x00,0x00,0x00,0x00,0x00,0x00,0x00,0x00,0x00,0x00,0x00,0x00,0x00,0x00,0x00,0x00,0x00,0x00,0x00,0x00,0x00,0x00,0x00,0x00,
0x00,0x00,0x00,0x00,};
DEFINE_TENSOR(layer_223_convolution_requantize, 4, 1, 4, layer_223_convolution_requantize_data)
__attribute__((aligned(4))) 
static const unsigned char layer_226_convolution_bias_data[] = {
0x03,0x00,0x00,0x00,0x07,0x00,0x00,0x00,0x05,0x00,0x00,0x00,0x0b,0x00,0x00,0x00,0xfd,0xff,0xff,0xff,0xff,0xff,0xff,0xff,0x09,0x00,0x00,0x00,0x07,0x00,0x00,0x00,
0xf3,0xff,0xff,0xff,0x00,0x00,0x00,0x00,0x03,0x00,0x00,0x00,0x02,0x00,0x00,0x00,0x04,0x00,0x00,0x00,0x00,0x00,0x00,0x00,0x01,0x00,0x00,0x00,0xff,0xff,0xff,0xff,
0xfb,0xff,0xff,0xff,0x0e,0x00,0x00,0x00,0x05,0x00,0x00,0x00,0xfc,0xff,0xff,0xff,0xff,0xff,0xff,0xff,0xfc,0xff,0xff,0xff,0xfa,0xff,0xff,0xff,0xfa,0xff,0xff,0xff,
0xf3,0xff,0xff,0xff,0xff,0xff,0xff,0xff,0x07,0x00,0x00,0x00,0xfe,0xff,0xff,0xff,0xfd,0xff,0xff,0xff,0x06,0x00,0x00,0x00,0x04,0x00,0x00,0x00,0xf9,0xff,0xff,0xff,
0x05,0x00,0x00,0x00,0x01,0x00,0x00,0x00,0xfe,0xff,0xff,0xff,0x00,0x00,0x00,0x00,0xfb,0xff,0xff,0xff,0xf5,0xff,0xff,0xff,0xf8,0xff,0xff,0xff,0xf9,0xff,0xff,0xff,
0x01,0x00,0x00,0x00,0xfc,0xff,0xff,0xff,0xfe,0xff,0xff,0xff,0x11,0x00,0x00,0x00,0xfe,0xff,0xff,0xff,0xf7,0xff,0xff,0xff,0xfc,0xff,0xff,0xff,0x00,0x00,0x00,0x00,
0x02,0x00,0x00,0x00,0x03,0x00,0x00,0x00,0x04,0x00,0x00,0x00,0x02,0x00,0x00,0x00,0xfb,0xff,0xff,0xff,0xff,0xff,0xff,0xff,0xfe,0xff,0xff,0xff,0x07,0x00,0x00,0x00,
0x12,0x00,0x00,0x00,0x00,0x00,0x00,0x00,0xfb,0xff,0xff,0xff,0xfc,0xff,0xff,0xff,0x0a,0x00,0x00,0x00,0x06,0x00,0x00,0x00,0xff,0xff,0xff,0xff,0xf7,0xff,0xff,0xff,
0x00,0x00,0x00,0x00,0x00,0x00,0x00,0x00,0x00,0x00,0x00,0x00,0x00,0x00,0x00,0x00,0x00,0x00,0x00,0x00,0x00,0x00,0x00,0x00,0x00,0x00,0x00,0x00,0x00,0x00,0x00,0x00,
0x00,0x00,0x00,0x00,0x00,0x00,0x00,0x00,0x00,0x00,0x00,0x00,0x00,0x00,0x00,0x00,0x00,0x00,0x00,0x00,0x00,0x00,0x00,0x00,0x00,0x00,0x00,0x00,0x00,0x00,0x00,0x00,
0x00,0x00,0x00,0x00,0x00,0x00,0x00,0x00,0x00,0x00,0x00,0x00,0x00,0x00,0x00,0x00,0x00,0x00,0x00,0x00,0x00,0x00,0x00,0x00,0x00,0x00,0x00,0x00,0x00,0x00,0x00,0x00,
0x00,0x00,0x00,0x00,0x00,0x00,0x00,0x00,0x00,0x00,0x00,0x00,0x00,0x00,0x00,0x00,0x00,0x00,0x00,0x00,0x00,0x00,0x00,0x00,0x00,0x00,0x00,0x00,0x00,0x00,0x00,0x00,
};
DEFINE_TENSOR(layer_226_convolution_bias, 4, 4, 256, layer_226_convolution_bias_data)
__attribute__((aligned(4))) 
static const unsigned char layer_226_convolution_filters_data[] = {
0xec,0xd3,0xd3,0xf4,0x26,0xec,0x1a,0x19,0x23,0x04,0xda,0xf9,0x1d,0xe4,0xdb,0x2d,0x06,0xce,0x10,0x07,0xf8,0x5f,0xdb,0xbf,0x1c,0xca,0xf2,0x0d,0xd7,0xde,0xe1,0x09,
0xec,0xdc,0xf2,0x09,0x06,0xfb,0x04,0xf3,0x03,0xef,0x14,0x27,0x2b,0xff,0x03,0xe1,0xfe,0xd4,0xdc,0x01,0x10,0x5a,0x03,0xda,0xd7,0x01,0xfc,0x13,0xff,0x07,0xd4,0xb5,
0x0b,0x2e,0xb3,0x03,0x2f,0xd9,0x1e,0x07,0x3b,0x3c,0x23,0xf3,0x18,0x26,0xe5,0xe3,0x25,0x53,0x0c,0x63,0x24,0xc0,0x0b,0xef,0xbf,0xb6,0xe0,0x11,0xf4,0x38,0x1f,0xed,
0x2c,0xcc,0xc9,0x29,0x36,0x07,0xfa,0x2d,0x04,0xb2,0xe2,0xc7,0xfc,0xdd,0xce,0x0a,0x34,0x08,0xf1,0x07,0xee,0xfa,0x20,0xd4,0x13,0x2f,0xc9,0xee,0x14,0x12,0x15,0xe1,
0xe5,0xfa,0xf7,0xcb,0x12,0x34,0x1b,0xa2,0x07,0xc4,0xdd,0x49,0xca,0x77,0xff,0x35,0x0b,0xd9,0x36,0xe6,0x12,0x24,0xc8,0x26,0x23,0xf9,0xb9,0xfd,0xd5,0xfc,0xc5,0xde,
0x1f,0x02,0x2e,0xf0,0xc0,0x26,0xf4,0xd4,0xe2,0xf8,0x1c,0xe2,0x3a,0x10,0xec,0x1d,0x06,0x11,0x05,0x0f,0x2a,0xfb,0xd7,0x1d,0xf2,0xdb,0x2d,0x24,0xe4,0x01,0xd8,0x13,
0x1e,0x0d,0x29,0x06,0xfd,0xef,0xd0,0xdb,0xf1,0x05,0x0d,0x2c,0x34,0x02,0x39,0x33,0x37,0xc8,0x4a,0x03,0xcb,0x4d,0xfb,0xbe,0xf2,0x18,0x16,0x1b,0xeb,0x1d,0x18,0x12,
0x18,0xf3,0xf4,0xef,0xfd,0xf0,0xea,0x20,0x2d,0x2c,0xf5,0xff,0xd1,0xe1,0xd6,0xfa,0x22,0xff,0x25,0x05,0xf5,0xf3,0x17,0x17,0x37,0xf4,0xd4,0xf7,0x13,0xe2,0xd6,0x07,
0xe6,0x22,0x27,0xe7,0x4a,0xdd,0xe3,0xfe,0xff,0x04,0xd3,0x2b,0x22,0xdd,0xf4,0x23,0xe0,0x12,0x20,0xb6,0x0e,0x30,0xb2,0xeb,0x2f,0xe2,0xff,0x1b,0x09,0x22,0xca,0x4d,
0x38,0x06,0xd9,0x3c,0x02,0xe4,0x30,0xbc,0xa7,0x05,0x3c,0x2a,0x11,0xe6,0xf9,0x0b,0xbd,0xf2,0x00,0xd7,0x23,0x10,0xf0,0x2a,0xfa,0x02,0x13,0x2d,0x1e,0xf5,0x14,0xf1,
0x06,0x12,0xc9,0xf3,0x21,0xe4,0x0c,0x02,0x1c,0x1a,0x0f,0xf4,0x40,0x1f,0x25,0x37,0x19,0x23,0xeb,0xde,0xeb,0x22,0x1c,0xfa,0x3b,0x1e,0x02,0x0d,0xf6,0xf2,0x02,0xee,
0xc5,0xfb,0x3b,0xd9,0xe2,0x46,0x51,0x26,0xdb,0x2c,0x4d,0x19,0xe3,0xf1,0x0d,0xea,0xd6,0xfd,0xe8,0x0c,0xfe,0x04,0x07,0x19,0x1c,0x24,0x1a,0xeb,0x23,0x05,0xd4,0x28,
0xfd,0xf1,0x12,0xf6,0xee,0xc2,0x32,0xdf,0xee,0x31,0x81,0xf1,0x01,0x0a,0xea,0x2b,0xeb,0xeb,0x17,0x03,0x1f,0x23,0x2f,0xd9,0xaa,0x31,0xdb,0x27,0xfd,0x7a,0x14,0x20,
0xfc,0x20,0xf2,0x06,0xee,0x04,0x24,0xf8,0x01,0xae,0x05,0x20,0x0c,0x0b,0xec,0x40,0xf1,0xd1,0x24,0x0d,0xbb,0x3a,0xfb,0xdb,0x13,0xfa,0xe5,0xea,0xee,0xe3,0x19,0xf4,
0xff,0x45,0x0e,0xfc,0xea,0x26,0xda,0xe3,0x2a,0x09,0xd3,0x22,0x42,0x09,0xe4,0xff,0xf0,0xd3,0x01,0xdc,0xf6,0x0d,0xfe,0x00,0x23,0xf2,0x0c,0x2e,0x01,0xea,0xf1,0x32,
0x05,0xce,0x20,0xf9,0xee,0x39,0xce,0x4b,0xe0,0xd0,0x19,0x1d,0xc5,0x15,0x45,0xd3,0xc6,0xe3,0xd8,0x72,0x6d,0xc5,0xee,0xcb,0xe8,0x01,0xcc,0xf3,0xcc,0xe1,0xec,0x36,
0xd4,0xc3,0xc3,0x1e,0xf9,0x2a,0x48,0x1b,0xd5,0x11,0xff,0x11,0x10,0x12,0x17,0x19,0xf4,0xfd,0xf1,0x0e,0x02,0xf9,0x06,0x20,0x19,0x01,0x0f,0xf5,0xea,0xf7,0xfe,0xf5,
0xe6,0x02,0x00,0xfd,0xe5,0xe8,0x3c,0x1a,0xe1,0x0d,0xf7,0xdc,0xe1,0xde,0x0c,0xdf,0x1d,0x0a,0xe2,0x21,0x0c,0xce,0x10,0x2d,0xe9,0x06,0x2d,0xff,0x1e,0x04,0x23,0xfa,
0x00,0x00,0x00,0x00,0x00,0x00,0x00,0x00,0x00,0x00,0x00,0x00,0x00,0x00,0x00,0x00,0x00,0x00,0x00,0x00,0x00,0x00,0x00,0x00,0x00,0x00,0x00,0x00,0x00,0x00,0x00,0x00,
};
DEFINE_TENSOR(layer_226_convolution_filters, 1, 2, 576, layer_226_convolution_filters_data)
__attribute__((aligned(4))) 
static const unsigned char layer_226_convolution_requantize_data[] = {
0x29,0x0f,0x83,0x3c,0x00,0x00,0x00,0x00,0x00,0x00,0x00,0x00,0x00,0x00,0x00,0x00,0x00,0x00,0x00,0x00,0x00,0x00,0x00,0x00,0x00,0x00,0x00,0x00,0x00,0x00,0x00,0x00,
0x00,0x00,0x00,0x00,0x00,0x00,0x00,0x00,0x00,0x00,0x00,0x00,0x00,0x00,0x00,0x00,0x00,0x00,0x00,0x00,0x00,0x00,0x00,0x00,0x00,0x00,0x00,0x00,0x00,0x00,0x00,0x00,
0x00,0x00,0x00,0x00,0x00,0x00,0x00,0x00,0x00,0x00,0x00,0x00,0x00,0x00,0x00,0x00,0x00,0x00,0x00,0x00,0x00,0x00,0x00,0x00,0x00,0x00,0x00,0x00,0x00,0x00,0x00,0x00,
0x00,0x00,0x00,0x00,0x00,0x00,0x00,0x00,0x00,0x00,0x00,0x00,0x00,0x00,0x00,0x00,0x00,0x00,0x00,0x00,0x00,0x00,0x00,0x00,0x00,0x00,0x00,0x00,0x00,0x00,0x00,0x00,
0x00,0x00,0x00,0x00,};
DEFINE_TENSOR(layer_226_convolution_requantize, 4, 1, 4, layer_226_convolution_requantize_data)
__attribute__((aligned(4))) 
static const unsigned char layer_229_convolution_bias_data[] = {
0xff,0xff,0xff,0xff,0x0a,0x00,0x00,0x00,0x05,0x00,0x00,0x00,0x01,0x00,0x00,0x00,0x03,0x00,0x00,0x00,0xfa,0xff,0xff,0xff,0xfa,0xff,0xff,0xff,0x05,0x00,0x00,0x00,
0x06,0x00,0x00,0x00,0x09,0x00,0x00,0x00,0x06,0x00,0x00,0x00,0xf8,0xff,0xff,0xff,0x07,0x00,0x00,0x00,0xf9,0xff,0xff,0xff,0x05,0x00,0x00,0x00,0x11,0x00,0x00,0x00,
0xf8,0xff,0xff,0xff,0xfb,0xff,0xff,0xff,0x03,0x00,0x00,0x00,0xf4,0xff,0xff,0xff,0xfa,0xff,0xff,0xff,0x01,0x00,0x00,0x00,0x0b,0x00,0x00,0x00,0x03,0x00,0x00,0x00,
0x08,0x00,0x00,0x00,0xfd,0xff,0xff,0xff,0xfe,0xff,0xff,0xff,0xfa,0xff,0xff,0xff,0x01,0x00,0x00,0x00,0x07,0x00,0x00,0x00,0x08,0x00,0x00,0x00,0x02,0x00,0x00,0x00,
0x09,0x00,0x00,0x00,0xf7,0xff,0xff,0xff,0x05,0x00,0x00,0x00,0x0c,0x00,0x00,0x00,0x09,0x00,0x00,0x00,0x00,0x00,0x00,0x00,0x02,0x00,0x00,0x00,0x11,0x00,0x00,0x00,
0xfb,0xff,0xff,0xff,0x0b,0x00,0x00,0x00,0x01,0x00,0x00,0x00,0xfd,0xff,0xff,0xff,0x0b,0x00,0x00,0x00,0x0c,0x00,0x00,0x00,0xfe,0xff,0xff,0xff,0x0d,0x00,0x00,0x00,
0x06,0x00,0x00,0x00,0xf2,0xff,0xff,0xff,0x02,0x00,0x00,0x00,0x03,0x00,0x00,0x00,0xf7,0xff,0xff,0xff,0x09,0x00,0x00,0x00,0xfd,0xff,0xff,0xff,0x04,0x00,0x00,0x00,
0x04,0x00,0x00,0x00,0xfd,0xff,0xff,0xff,0x0b,0x00,0x00,0x00,0xfc,0xff,0xff,0xff,0x06,0x00,0x00,0x00,0x04,0x00,0x00,0x00,0x04,0x00,0x00,0x00,0x02,0x00,0x00,0x00,
0x00,0x00,0x00,0x00,0x00,0x00,0x00,0x00,0x00,0x00,0x00,0x00,0x00,0x00,0x00,0x00,0x00,0x00,0x00,0x00,0x00,0x00,0x00,0x00,0x00,0x00,0x00,0x00,0x00,0x00,0x00,0x00,
0x00,0x00,0x00,0x00,0x00,0x00,0x00,0x00,0x00,0x00,0x00,0x00,0x00,0x00,0x00,0x00,0x00,0x00,0x00,0x00,0x00,0x00,0x00,0x00,0x00,0x00,0x00,0x00,0x00,0x00,0x00,0x00,
0x00,0x00,0x00,0x00,0x00,0x00,0x00,0x00,0x00,0x00,0x00,0x00,0x00,0x00,0x00,0x00,0x00,0x00,0x00,0x00,0x00,0x00,0x00,0x00,0x00,0x00,0x00,0x00,0x00,0x00,0x00,0x00,
0x00,0x00,0x00,0x00,0x00,0x00,0x00,0x00,0x00,0x00,0x00,0x00,0x00,0x00,0x00,0x00,0x00,0x00,0x00,0x00,0x00,0x00,0x00,0x00,0x00,0x00,0x00,0x00,0x00,0x00,0x00,0x00,
};
DEFINE_TENSOR(layer_229_convolution_bias, 4, 4, 256, layer_229_convolution_bias_data)
__attribute__((aligned(4))) 
static const unsigned char layer_229_convolution_filters_data[] = {
0x0f,0xfe,0xc7,0x06,0x11,0xda,0xf4,0x30,0x11,0x17,0x26,0xd6,0xfc,0xf3,0xeb,0xe7,0xf8,0xf1,0xef,0xf4,0xd6,0xf9,0xec,0x10,0xf5,0x07,0xe6,0xe8,0xf2,0x0e,0xe6,0x0e,
0xf5,0x0b,0x34,0x0d,0x10,0x11,0x11,0xf8,0x4c,0x3f,0x09,0x02,0xf4,0xfa,0x20,0xe9,0xfe,0x15,0x13,0x2f,0x20,0xf2,0x08,0xfd,0x18,0x04,0x08,0xd9,0xd9,0x0d,0x04,0xef,
0xf4,0xeb,0xe8,0x16,0xe3,0x0c,0xf2,0xcb,0xf3,0xde,0x09,0xe4,0x0f,0xfe,0xe4,0x1e,0xf0,0x10,0xe6,0xe8,0xe7,0x11,0x0e,0xea,0xed,0x0e,0xf8,0x18,0x04,0xfb,0xe8,0xf8,
0xeb,0x40,0xe2,0xf4,0x12,0xfa,0xff,0x01,0x28,0xe8,0xe6,0xf0,0x02,0x0a,0xf0,0xed,0xef,0xe7,0x07,0x04,0x0b,0xea,0xf8,0x02,0xfc,0x05,0x1d,0x1a,0xef,0xfd,0xfa,0xd8,
0xd9,0xe3,0x17,0x28,0xe7,0x07,0x0a,0xf4,0xd5,0xfa,0x25,0x08,0x07,0x09,0xdf,0x06,0x14,0x02,0x0c,0xf0,0x29,0xe8,0xf9,0xf9,0xfd,0xcc,0xf6,0xe8,0x03,0xfd,0x18,0xfe,
0x13,0x2a,0xef,0x08,0xff,0xf1,0x0d,0x07,0xd1,0xd5,0xf6,0x28,0x05,0xee,0xf9,0xf8,0xe6,0xe1,0x09,0xfd,0xf3,0x06,0x0c,0x0d,0xf8,0xd6,0xf1,0xf0,0x17,0xdd,0xf5,0xf9,
0xed,0xfe,0x14,0xee,0xfc,0x06,0x15,0x11,0x13,0xe2,0xfb,0x03,0x1d,0x00,0xf9,0x30,0x10,0xfa,0xf8,0xdb,0x14,0xfd,0x07,0x12,0xfc,0x24,0xdf,0x05,0xf9,0xea,0xfb,0xee,
0xec,0xfb,0x08,0x16,0xf5,0x04,0xec,0x2b,0x19,0xc1,0xff,0xdd,0xdd,0x22,0x17,0x1e,0x05,0x0d,0xe5,0x1a,0x0d,0xf3,0xf8,0xdf,0x1b,0x05,0x0a,0x0b,0x0b,0x05,0xf3,0xeb,
0xe7,0x0d,0x23,0xea,0xf9,0x05,0x00,0x11,0x0f,0xfc,0x0e,0x1b,0xed,0x03,0xf2,0x35,0x00,0x15,0xed,0xee,0x07,0xe4,0x24,0x05,0xeb,0xff,0xeb,0x0d,0x0a,0xfe,0x1e,0xed,
0xff,0xc7,0xe0,0xf4,0xf8,0xe1,0x12,0x09,0x06,0xde,0x0c,0x15,0xfa,0xfb,0x17,0xdd,0x19,0x02,0xd9,0xf0,0x04,0xf2,0xe2,0xfd,0x11,0x11,0xe6,0xdf,0xff,0x12,0xed,0x0c,
0x06,0x45,0x28,0xf3,0xbc,0xf5,0x0a,0xc3,0x0f,0xcd,0x16,0x0e,0x06,0x1f,0x60,0xef,0x11,0x22,0x05,0xf7,0x16,0xd9,0x14,0xe8,0xf1,0x25,0x00,0x06,0xfc,0x23,0x09,0xdd,
0xf8,0xf4,0x04,0x13,0xfd,0x11,0xe2,0xed,0xe3,0x23,0xe7,0xfd,0x2e,0x12,0xe5,0xff,0x0d,0x30,0xef,0xf4,0xdf,0x0d,0xf3,0x14,0xf5,0x05,0x06,0x1f,0x19,0x18,0x22,0x05,
0x26,0x25,0xef,0x0c,0x37,0x03,0xe7,0x07,0xf4,0x1a,0x0b,0xf1,0x0b,0x1f,0x0e,0xe5,0x16,0x09,0xef,0xff,0xe6,0x0f,0x08,0x00,0xef,0xe9,0x21,0xee,0x19,0xf1,0x0d,0xe9,
0x09,0xec,0xfa,0x46,0xda,0x05,0x09,0x12,0x49,0x08,0x13,0xd6,0x11,0xf0,0x11,0xee,0xe9,0x28,0xf8,0xf8,0x25,0xe3,0x05,0x18,0xf4,0x09,0x14,0xef,0xf6,0x11,0x0b,0x0e,
0xd7,0xee,0xfc,0xf4,0xd4,0xff,0xe3,0x02,0xff,0xd7,0xf7,0xe2,0x01,0x03,0xfa,0x1b,0xf6,0x06,0x00,0xd1,0xf5,0xfd,0xfd,0xf5,0x02,0x18,0xee,0xf2,0xdc,0x04,0x16,0xf9,
0x0c,0xd9,0xe4,0xdc,0x10,0xe9,0x14,0xdd,0x06,0xef,0x35,0x1f,0xf0,0x15,0x09,0xf6,0x1b,0x02,0x39,0xd9,0x0c,0xf7,0x10,0x22,0x1f,0x0c,0x2c,0xde,0x00,0xfa,0x10,0x0f,
0x37,0xc9,0xc7,0x03,0xeb,0x1a,0x11,0x2b,0x21,0x0c,0x09,0xeb,0x22,0xbe,0xeb,0xe1,0xfe,0xf3,0x01,0xfb,0xfb,0xf5,0xde,0xec,0xf4,0xca,0x18,0x06,0x09,0xfd,0x09,0xdf,
0x09,0x20,0x21,0xf8,0x0d,0xff,0xf4,0xf3,0xe1,0x01,0xf9,0x0b,0x07,0xfb,0xe0,0xd0,0x27,0x09,0x15,0x10,0x0f,0x15,0x0b,0x1a,0xdf,0x02,0x02,0x13,0xe9,0x02,0xe1,0xee,
0xe3,0xe8,0x04,0xfb,0xdb,0xdf,0xfe,0x17,0xf7,0x01,0x11,0x0e,0xf2,0xfb,0xf0,0x26,0x0a,0xf7,0xf4,0x09,0xfa,0x13,0x01,0x0c,0xf5,0xd6,0x08,0x1a,0x2b,0xfc,0xf6,0xf2,
0xfa,0xde,0x00,0xf6,0x04,0x1e,0xef,0x0f,0xf1,0xcb,0xee,0xdb,0x09,0x26,0xd5,0xf5,0x13,0x13,0xf8,0x27,0xf4,0x0e,0xfc,0x01,0xe6,0xf2,0x05,0x06,0xde,0x0d,0xf1,0xe8,
0xef,0x08,0xfd,0x0e,0xf3,0x11,0xe0,0xa3,0xed,0x06,0xe9,0xe3,0xfa,0xfa,0xf1,0x35,0xd5,0x13,0x04,0xe4,0xe7,0xfa,0x27,0xdb,0xf1,0x2a,0xf4,0x19,0x0e,0xf3,0xf9,0x06,
0xe1,0xef,0x09,0x36,0x0d,0x04,0x0d,0x09,0xe1,0xe5,0x11,0xfa,0xf3,0x02,0x22,0x1e,0x18,0xed,0x09,0xff,0x23,0xe5,0xc4,0xf9,0xfc,0x0a,0x10,0x06,0xe8,0xf2,0x2b,0xd2,
0x40,0xdf,0xce,0x2c,0xed,0xf9,0x1f,0xf9,0xf0,0x48,0xee,0x0d,0xe6,0x07,0x0d,0x1b,0x00,0x0d,0xed,0x08,0x26,0x15,0xfb,0xee,0x13,0xf9,0x21,0x23,0xf9,0x09,0x3b,0xfc,
0x2a,0xe4,0x0a,0xfc,0x10,0x1a,0x3d,0x16,0x0e,0xf9,0xf5,0x0a,0x15,0xd7,0xeb,0x0f,0x14,0xf7,0x0f,0x4a,0xea,0x09,0x01,0xdf,0x2b,0xf0,0xf4,0xe2,0xfe,0xd1,0x13,0x04,
0xde,0x00,0x08,0x01,0xbb,0xdd,0xfe,0x03,0x00,0x02,0x03,0xfd,0xff,0xfb,0x0c,0x0b,0xfb,0xce,0x19,0xe4,0x0c,0x1f,0xff,0xfc,0xfc,0xd1,0x12,0xde,0x26,0xf9,0xff,0xf7,
0xfd,0xe5,0x09,0xe0,0xee,0xfc,0xdd,0xfb,0xf3,0x1b,0x19,0xf7,0x05,0x18,0xee,0xe8,0x2a,0xf4,0x13,0xfc,0xf1,0x0f,0x2c,0xf9,0x01,0xec,0xe7,0x08,0x08,0x10,0x08,0xf9,
0xff,0x12,0x3c,0x04,0xf9,0x1e,0x12,0xd0,0xf7,0xfa,0xfb,0xf9,0xea,0x13,0xeb,0x05,0x1e,0x1b,0xde,0x29,0xf5,0x11,0x05,0xf2,0xf3,0x14,0xfa,0xf7,0x04,0x1e,0x1d,0x27,
0x0b,0x16,0xf0,0x02,0xe3,0x03,0xe4,0xfc,0x33,0xe4,0x09,0x1a,0xf0,0xf7,0x2d,0x0d,0x14,0x12,0x0e,0x0d,0x3a,0xfe,0xf6,0x12,0xf9,0x0d,0x10,0xfc,0xf4,0xfa,0xfd,0xe2,
0xe8,0x30,0xd9,0x08,0xfe,0x2e,0xf6,0xfa,0xf5,0xff,0xe0,0x1e,0xe1,0x06,0x26,0xf1,0x02,0x21,0xef,0x12,0xff,0xd4,0xe7,0xef,0xe2,0xe9,0x20,0x12,0xf9,0x03,0x06,0xf9,
0xf9,0xf9,0x08,0xcb,0x2e,0x13,0xfe,0xf4,0xf4,0x03,0xe7,0x27,0x10,0xf9,0xea,0xe2,0xef,0x1a,0x14,0xc1,0xd7,0xfb,0x19,0xe0,0x00,0x06,0xc1,0xf0,0xef,0xfa,0xd5,0x09,
0xe0,0xf7,0xf4,0x05,0xdd,0x07,0xde,0xd2,0xf7,0xe3,0xf2,0x02,0xe7,0xdb,0xdd,0xe2,0x00,0x06,0x0c,0xec,0x0a,0xf9,0x03,0x11,0xfc,0x09,0x14,0xf5,0xfe,0x06,0xe9,0xfb,
0xf0,0xd8,0xfc,0xde,0xee,0xf0,0xed,0x00,0x11,0x0b,0x02,0xeb,0xf8,0x02,0xe4,0xf4,0xe8,0xfe,0x00,0xe0,0xe3,0x11,0x00,0x08,0xf2,0x0b,0x02,0xd7,0xf2,0xf3,0x01,0x26,
0x0e,0x0a,0x0a,0xfa,0xeb,0xdb,0x0e,0x3f,0x08,0x08,0xf9,0x06,0xf6,0x02,0x22,0x05,0xfc,0x06,0xfa,0x2e,0x08,0x0f,0x0f,0xfc,0x0e,0xf8,0xfe,0x15,0x1c,0xe7,0x10,0xfb,
0xfa,0xe8,0x38,0x1b,0xfc,0xf8,0xe6,0xee,0x0e,0x0f,0x06,0x12,0x0d,0x08,0x0b,0x04,0xef,0xe2,0xff,0x0c,0x04,0x1f,0x25,0xf5,0x0f,0x09,0x0a,0x36,0xea,0x13,0xf5,0xf1,
0xee,0xe9,0xeb,0xe7,0xfe,0xff,0x23,0xf8,0x10,0x09,0x04,0xef,0xdc,0xd2,0xe7,0x0d,0xfe,0xef,0x24,0xe4,0xe3,0x1f,0xf5,0x31,0x0d,0x0d,0xf0,0x10,0x08,0x0b,0x11,0xe5,
0x28,0x55,0xe3,0xff,0xd9,0x0c,0x0b,0xf4,0x28,0x27,0x09,0x30,0x12,0xfd,0x1c,0xe9,0x01,0xf1,0x15,0xfe,0xe4,0x05,0x0c,0xfa,0x2e,0xe6,0x29,0x2a,0xed,0x0d,0x0c,0xf8,
0xfe,0xe1,0x02,0x09,0x08,0x3d,0x13,0x1c,0xfd,0x21,0xea,0x06,0x00,0x2c,0x34,0xe7,0xd7,0xf0,0xf5,0x1c,0xf3,0xf9,0xde,0xee,0x1c,0xf9,0xf6,0xf3,0x09,0x17,0xf7,0xee,
0x11,0xd0,0xf8,0x10,0xe9,0xdc,0xfc,0xdf,0x17,0x03,0x0e,0x09,0xfb,0xe2,0xfb,0x19,0xf9,0x01,0x37,0xf4,0xf4,0x04,0xfd,0xf3,0xdd,0x21,0x2c,0xfa,0xe4,0xd7,0x37,0x1b,
0x11,0xd9,0xe7,0xff,0xcc,0x12,0x0b,0x1b,0x02,0x05,0x13,0x06,0x15,0xfa,0x0c,0x1a,0xde,0xeb,0x0c,0x06,0xfd,0x42,0x06,0xff,0x4a,0x28,0xf6,0x1f,0xf9,0xe1,0xfd,0x3a,
0x04,0x14,0x18,0x05,0x16,0x09,0xf7,0x13,0x00,0x09,0x0f,0x00,0x02,0x0a,0xf3,0x14,0x0a,0x0f,0x1a,0x12,0x40,0x18,0xfe,0xef,0x04,0x0a,0x0d,0x02,0x01,0x07,0x26,0x17,
0x38,0x37,0x1b,0xfa,0x05,0xce,0xf2,0x1b,0x21,0xf7,0x17,0xe1,0x48,0xe1,0x05,0xe3,0x03,0x12,0x1d,0x03,0x1d,0x02,0xea,0x2a,0x19,0xef,0x02,0xdd,0xe2,0xfe,0x18,0xda,
0xf1,0xd4,0x04,0x0f,0xe5,0x01,0x2d,0x0a,0xf4,0x38,0x1d,0xfe,0x1d,0xde,0x0d,0xe8,0xfe,0xf9,0xff,0x2e,0xea,0xe9,0x27,0x13,0xdf,0xf3,0x25,0x33,0xdf,0x1a,0x23,0xff,
0xe0,0xf2,0xf1,0x02,0xfa,0xf2,0xd6,0x15,0xe6,0x18,0x19,0xeb,0xfc,0x1d,0xf3,0xf2,0x0f,0xfd,0x07,0xe3,0x0c,0x02,0x1c,0x0a,0x17,0x04,0xff,0x0f,0x2d,0xdf,0x08,0xe8,
0x12,0xee,0x14,0x06,0xc7,0x00,0xf1,0x0c,0x22,0x08,0x30,0x03,0xf5,0x11,0xe9,0xfd,0x0b,0x07,0x10,0x04,0x27,0x04,0x10,0xec,0x01,0xe3,0xfa,0x25,0xfc,0x01,0x32,0xf4,
0xf2,0xf0,0xf9,0xfd,0xdb,0xf9,0x05,0x0a,0xdf,0xe4,0xf2,0xcf,0x1c,0xf9,0xd6,0x14,0xec,0xfe,0x0e,0xe2,0xfe,0xee,0x10,0xe4,0xf0,0xd5,0xfa,0xfe,0xda,0xf0,0x0c,0x05,
0xe0,0x32,0xef,0xcb,0xe5,0xff,0x0b,0x09,0xf7,0x00,0x0a,0x0c,0xfb,0x03,0xf5,0xed,0x00,0xef,0x01,0x0e,0x0e,0x03,0x00,0xf1,0xfa,0xfc,0xe9,0xfa,0x11,0xf0,0xff,0x15,
0xf1,0xe3,0xf9,0xf0,0xf2,0xdd,0x12,0x04,0x3d,0xee,0x0d,0xf4,0x06,0xe8,0xec,0x00,0xcc,0xc7,0xea,0x11,0xe0,0x10,0x11,0xf7,0xf1,0x0e,0x2b,0x14,0x24,0x05,0x04,0xfa,
0xf1,0x12,0x1e,0x04,0xc6,0x01,0x14,0x21,0x02,0x26,0x10,0xec,0x19,0xf8,0x03,0xe6,0x10,0xf8,0xd5,0x40,0xf5,0xef,0x12,0xfe,0xf3,0xf2,0x10,0xf6,0xff,0x26,0xe3,0xfc,
0xfb,0xd1,0x0e,0x0a,0x04,0x07,0x1a,0xda,0x00,0x17,0xce,0x1f,0xfa,0xfd,0xe8,0xf7,0xed,0x10,0x15,0xe4,0xfd,0xf1,0x0c,0x24,0xfb,0x15,0xf4,0x01,0xd8,0x06,0xf9,0xd7,
0x0c,0xfe,0x1d,0xdc,0xd9,0x22,0x1e,0xf5,0xff,0xde,0xfa,0x16,0xff,0xf9,0xf5,0xd0,0xf7,0xe9,0x28,0xdb,0x28,0xd4,0xe3,0xd3,0x0b,0xe0,0xe9,0x15,0x17,0xe9,0xdd,0x1e,
0xf2,0x09,0xf7,0x0e,0x03,0xfa,0x01,0x1e,0xe0,0x09,0x1b,0x1c,0xfb,0xfa,0x0c,0x06,0x0f,0x0b,0xee,0xf8,0x34,0xf6,0x1e,0xe7,0xea,0x5b,0x0b,0x16,0xf1,0x10,0x00,0xeb,
0xf7,0xcf,0x13,0xf4,0x17,0xfc,0xe7,0xfd,0x10,0xde,0xef,0x12,0x0a,0xf4,0x06,0x29,0xe5,0x00,0x1c,0xf8,0xed,0x16,0x23,0x09,0x24,0x06,0xfe,0x04,0xe7,0xe5,0x02,0xf5,
0xfd,0xe7,0xe9,0x03,0x07,0xf8,0xf9,0xef,0xeb,0x13,0x04,0x18,0x04,0x09,0xdc,0x18,0x06,0xfd,0x00,0xf6,0x36,0xf5,0xe0,0x14,0x17,0x3c,0xf5,0x17,0x05,0x04,0x0d,0xe5,
0x0a,0x04,0x1f,0x11,0xce,0xfe,0xf6,0x15,0xfd,0x08,0x01,0xe3,0xe5,0xfd,0xf5,0x13,0xfc,0xfc,0x15,0x00,0x13,0xed,0xf9,0xf6,0x3a,0xfa,0xf0,0x5b,0x05,0x03,0x0a,0xcf,
0x03,0xef,0xf1,0x16,0x06,0x21,0x03,0xd9,0x1e,0xfc,0xea,0xee,0xf9,0xfd,0x52,0xf6,0x04,0x15,0xe3,0x07,0xf5,0x05,0x00,0xf5,0xd9,0x33,0x17,0x21,0x06,0xfb,0xf4,0x1a,
0xf3,0xe3,0x03,0x0f,0x1a,0xfc,0x15,0x0d,0x20,0x16,0xe9,0xf6,0x1a,0x07,0x21,0x0a,0x01,0x1b,0x01,0x04,0x1f,0x0a,0xf1,0xeb,0x09,0xf0,0x09,0xea,0x03,0x01,0x10,0x03,
0x2e,0xe7,0xdd,0xf9,0x19,0x2b,0xf1,0x25,0xfd,0xf8,0xf6,0xe9,0x0f,0xfb,0x00,0x0a,0x06,0xf6,0xff,0x0e,0x0d,0xd0,0x02,0xf4,0xf5,0x18,0xfd,0x00,0x10,0x1e,0x0e,0xf2,
0x19,0xe4,0xe6,0xd1,0x1d,0x0c,0x07,0x17,0xcc,0xc7,0x0b,0x01,0xfa,0x17,0xe6,0xdf,0x18,0x0a,0x01,0x04,0xfa,0x19,0x13,0xfd,0xe1,0xeb,0x10,0xe4,0x0f,0x0b,0x16,0x02,
0xea,0xd9,0xf5,0x0f,0x08,0xef,0x10,0xfc,0xd9,0xe3,0x0f,0xff,0xf7,0xf4,0xea,0x1e,0xef,0x15,0xf3,0xfb,0xf4,0x09,0x2d,0xf2,0x10,0xfb,0xe0,0x1a,0xeb,0xe8,0xea,0x02,
0xef,0x0e,0x0d,0xf5,0x01,0xf0,0x15,0x06,0x24,0xd5,0x0d,0x1d,0x05,0x10,0xf3,0xda,0xf8,0xf3,0xf9,0x16,0xfc,0xf6,0xfc,0xea,0xff,0xef,0x09,0xf1,0xf0,0x14,0x02,0xf9,
0x24,0x02,0xe6,0xf0,0xec,0x24,0x01,0x14,0x00,0x17,0xf5,0xe4,0xff,0xe7,0xd8,0x07,0x0e,0x02,0xf6,0x15,0xdb,0xe0,0xe2,0xf4,0xf4,0xf6,0xfd,0xfe,0x0d,0x0b,0xf1,0xf2,
0x02,0x0d,0xcb,0xdf,0xfc,0xfc,0x07,0xfe,0xd5,0xf1,0xf2,0xf7,0x01,0x00,0x15,0xe9,0x1a,0x11,0xe8,0x01,0xe2,0x1c,0xf2,0xfa,0x05,0x02,0xfd,0xe5,0x01,0x08,0xe2,0x12,
0xfa,0x01,0xf0,0x0f,0x23,0x02,0xf0,0x01,0xf0,0x02,0xf9,0xed,0x14,0xdd,0x0f,0xfc,0xd8,0x10,0xfe,0xfe,0x18,0x1b,0xf6,0xea,0xee,0x0c,0x25,0x16,0xf8,0xef,0xf1,0xe4,
0x12,0xf8,0x10,0xb7,0x2f,0x0c,0x31,0xf3,0xef,0x0b,0xff,0xe7,0x1f,0x00,0x0c,0x0a,0xec,0x1a,0xe5,0x0c,0xe1,0x12,0x12,0x08,0x1c,0xe5,0x0e,0x11,0xdd,0xf8,0xe1,0xf9,
0x05,0x07,0xfc,0xdb,0xd3,0xdd,0x0b,0x5a,0xf9,0x07,0xf2,0x31,0xdb,0x13,0xf1,0x15,0xd8,0xff,0x0e,0x22,0xef,0xef,0xe7,0x13,0xd9,0x00,0x0a,0xf1,0x04,0xff,0xe0,0x0d,
0x1e,0xd3,0x16,0xd7,0x1b,0xcf,0x08,0x06,0x0b,0xfa,0x1f,0xef,0x15,0x06,0xd1,0x07,0xfc,0xf3,0xe8,0xf1,0xe2,0x00,0xe6,0x01,0x07,0xe6,0x1c,0xf3,0xdb,0xe9,0xdf,0xe9,
0x0b,0x03,0xda,0x17,0xf6,0x29,0x08,0x2a,0x0a,0x2e,0x1d,0xe7,0xee,0xef,0xda,0x00,0x2d,0x03,0x00,0xeb,0xdf,0xc3,0x07,0xe2,0x0b,0x04,0xe2,0x1d,0x3f,0x42,0x08,0xf9,
0x2d,0x3b,0x0c,0xd2,0x40,0x14,0x09,0xf1,0xed,0x14,0x02,0x0c,0xfc,0x14,0x25,0x2c,0x00,0xff,0x06,0x11,0xf7,0x09,0xf2,0xfe,0xe4,0x0b,0xf7,0x7f,0xf5,0xee,0xf0,0xcd,
0xd8,0xbf,0x06,0xfc,0xde,0x2d,0x06,0x0d,0xeb,0x1d,0xeb,0xdd,0x11,0xfb,0xd7,0x17,0xee,0x0e,0x13,0xbf,0xee,0xd5,0x00,0xeb,0x22,0x23,0x06,0x19,0xf3,0x21,0x04,0x0d,
0xdc,0xf9,0x20,0xf2,0x21,0x1c,0x12,0xf9,0xb3,0xe1,0x0e,0xe7,0xe2,0x09,0xf6,0x61,0xf4,0xf5,0x00,0x1c,0xe1,0x01,0x24,0xfe,0xf6,0xf4,0xef,0x21,0xe7,0x09,0x04,0x01,
0xfa,0x04,0xee,0xf0,0xfa,0xea,0x0f,0xfb,0x19,0xee,0xfb,0xf0,0x00,0xdc,0xee,0xf4,0x07,0xf7,0xe6,0xe7,0xdf,0xf2,0x2c,0xf5,0x02,0xf5,0x0f,0x01,0xf3,0x18,0x0c,0x0e,
0xef,0xc1,0xf3,0x00,0xf6,0xdd,0xd9,0x05,0xf3,0xec,0xf0,0x07,0xd4,0xf7,0xfd,0x0c,0x04,0x17,0xf6,0xee,0xf1,0x02,0xe2,0xf0,0x10,0xf8,0xe2,0xea,0xef,0xfb,0xf0,0xf4,
0xec,0xe8,0xee,0x04,0xd3,0xf7,0xed,0xe2,0x2a,0xf6,0xfe,0x00,0xe8,0x0c,0xea,0xf4,0x0d,0xfe,0x07,0xe5,0xeb,0xff,0xe3,0xe9,0x29,0xee,0xf5,0xf8,0x02,0x16,0xf9,0x20,
0x00,0xf5,0xf2,0xef,0xec,0x0c,0x0e,0xff,0x0c,0xe7,0x05,0xfa,0xea,0x0c,0xfe,0xee,0xe9,0x0f,0x10,0x06,0x07,0xfb,0xe5,0xef,0xfe,0x0c,0xfb,0xf5,0x01,0x0b,0x0a,0xfc,
0x2e,0xdb,0xf8,0x05,0xd2,0x13,0xee,0xfe,0x16,0x29,0x0c,0xd5,0x04,0x10,0xdd,0xe6,0xd6,0x0e,0xfe,0xfc,0xf5,0x20,0xf4,0xff,0x29,0xec,0x12,0x15,0x25,0xfe,0x05,0x1b,
0xe7,0x0f,0x17,0xed,0x0b,0x1b,0x26,0xe2,0xd6,0x0e,0x16,0xfa,0x0b,0xe0,0xe1,0xec,0x02,0x00,0x1a,0x35,0x1f,0x08,0x0d,0x00,0xe7,0x10,0x08,0xfa,0xe3,0xd2,0x24,0x1a,
0x0c,0xfd,0x16,0x03,0x28,0x36,0x08,0x1f,0xfd,0x12,0xeb,0xed,0xf1,0x0c,0x08,0xf8,0x02,0xec,0x07,0xef,0x12,0xdd,0xe1,0xff,0xef,0xde,0x28,0xf4,0x03,0x23,0x09,0x00,
0xf9,0xe1,0xfe,0xed,0xfc,0x07,0x06,0xe7,0xe0,0xf0,0xf4,0x0b,0xfb,0xff,0xf3,0xfb,0xfa,0x16,0xf4,0xe4,0x0a,0x11,0x00,0x07,0xfd,0xfd,0xef,0xcc,0xe9,0xfa,0xff,0x17,
0xfb,0xda,0xe8,0x01,0xd0,0xef,0xf5,0xe3,0x21,0xf6,0x04,0x04,0xeb,0xfd,0x05,0xee,0xf6,0xff,0x0e,0xf1,0xeb,0x04,0xf3,0xf8,0xe1,0xdb,0x0b,0x01,0xfb,0xe2,0xdf,0xee,
0x08,0xf4,0xee,0xe3,0x3c,0xe7,0xf7,0xeb,0xe1,0xf9,0x04,0x03,0x02,0xf5,0xef,0xf1,0xe6,0x09,0xf8,0xd0,0xf1,0xfa,0xfe,0xf4,0x11,0xf2,0x08,0x2a,0xf3,0x02,0xe7,0x00,
0xe3,0x10,0x19,0xf9,0x1d,0xf5,0xee,0x13,0x0b,0xfa,0xf8,0xf0,0x08,0x08,0x05,0x04,0xf6,0x08,0xe3,0xf9,0x25,0x03,0x1d,0xfe,0x07,0xf4,0xfd,0x1f,0xff,0xe7,0xf3,0xfd,
0xef,0x31,0x11,0xfc,0xe4,0x02,0x0a,0x02,0x13,0xfe,0x12,0x01,0x29,0x10,0x39,0x25,0x16,0xeb,0x1b,0x05,0xf7,0xf4,0x3e,0x09,0xf9,0xf6,0x25,0xea,0xe1,0x15,0x20,0x02,
0x07,0x0b,0x05,0xed,0xea,0xe7,0x00,0xe7,0x06,0xf0,0x05,0xf9,0x03,0xf8,0xfc,0xef,0xf8,0x00,0x10,0x05,0xf7,0xd4,0x06,0xfb,0x00,0x07,0xee,0x02,0x03,0x0e,0x0c,0x1c,
0x13,0xe4,0xdb,0xd9,0x1c,0x01,0xf0,0x05,0xfb,0xfd,0xde,0xf7,0xf6,0xf3,0xf3,0xe0,0x03,0xe9,0xe9,0xf5,0xf3,0xf9,0x00,0x09,0x09,0xe9,0xf5,0xe5,0xfd,0xe4,0xf3,0xe8,
0xda,0x06,0xff,0x0b,0xd3,0x02,0xeb,0x1d,0xf4,0x06,0x0e,0xff,0x09,0x03,0xfa,0x00,0xed,0x0a,0xe0,0x08,0xf5,0x05,0x1e,0x02,0xf2,0x37,0xeb,0x33,0x01,0x03,0xbb,0xf8,
0x0f,0xf7,0x13,0xf1,0xff,0x04,0x22,0xfa,0x1c,0xe0,0x07,0x04,0xf1,0x21,0x15,0xfa,0x0b,0xdb,0xfa,0x00,0x09,0x01,0xfd,0xfa,0x17,0x00,0x11,0x05,0x02,0xf7,0x03,0xf9,
0x04,0x11,0xfa,0xfb,0xd9,0x29,0x0d,0x0e,0xfb,0x23,0x26,0x15,0xf9,0xff,0xf3,0xea,0xfb,0x17,0xfc,0x0d,0x36,0x1c,0x02,0xe5,0xec,0x48,0xf7,0x5b,0x0a,0xdf,0xf0,0x0b,
0x05,0xc3,0xf1,0xfc,0xe2,0x15,0xdb,0xf0,0xf8,0xd9,0xfe,0xf3,0x12,0x0b,0x0e,0x09,0xe6,0x33,0x14,0xd8,0x18,0x16,0x0a,0xf0,0xe6,0x18,0x1a,0x0f,0xff,0x0d,0x01,0x07,
0xf9,0xdd,0xd8,0x04,0x04,0xf5,0x07,0xdd,0xea,0xf6,0x00,0xfb,0xe5,0xf0,0xe7,0xfc,0xeb,0xe8,0x03,0xda,0x10,0xf3,0xed,0xfb,0x16,0xfb,0xe8,0xed,0x06,0x00,0x04,0xf5,
0x14,0xee,0xd5,0x0b,0xdd,0x19,0x14,0x30,0xdf,0x15,0x0a,0x1d,0x07,0x05,0xe6,0x01,0xfc,0xfd,0xf7,0xe7,0xd3,0xfd,0xf4,0xfd,0x1b,0x0d,0xe7,0x0c,0x11,0x09,0x0f,0xec,
0x08,0xd7,0x12,0xe1,0xf8,0xfa,0x12,0xc9,0xe5,0xfd,0xe1,0x13,0xec,0x03,0xed,0x22,0xdc,0x22,0x15,0xe3,0xe1,0xfd,0x03,0xfe,0x0b,0xe8,0xf0,0xe8,0xe4,0xd5,0x06,0xee,
0x05,0xfc,0xe3,0xe7,0xf6,0x0b,0xe8,0xdf,0xef,0xe7,0x07,0x26,0xf9,0x0c,0x43,0xd8,0x0d,0xeb,0xe6,0x0a,0xdb,0x28,0x0a,0x1b,0xf1,0xfd,0xec,0xe7,0xff,0xdb,0xfa,0x16,
0x29,0xf1,0x07,0x17,0xdf,0x3c,0xe8,0x10,0xf8,0x36,0x00,0xe7,0x04,0xcb,0xe0,0xf3,0x00,0x21,0x16,0xf5,0xff,0xf8,0x38,0x05,0xfb,0x06,0x24,0x44,0xee,0xdd,0x0c,0xda,
0x11,0x10,0xdc,0xf9,0x40,0xed,0xfa,0x03,0xfc,0xd5,0x11,0x11,0x25,0xd7,0x05,0xc9,0xeb,0xf6,0xf5,0x0a,0x24,0x0b,0x10,0x29,0xe2,0xfd,0xf4,0xe4,0xf0,0x18,0xff,0xf7,
0xfb,0x14,0x29,0xe8,0xe3,0xc7,0x00,0xe9,0x12,0xf4,0x1e,0x09,0xf2,0x03,0x0d,0xfe,0x25,0xf9,0x06,0xf2,0x0a,0xf1,0x05,0x0c,0xe6,0xfa,0x05,0xf8,0x03,0x0e,0xec,0xe4,
0xfa,0xd3,0xe5,0x03,0x01,0xfc,0xe4,0xe4,0xe2,0x0a,0xf7,0x16,0x0d,0xf1,0xfe,0xed,0xe0,0xff,0x0d,0xeb,0xf9,0x02,0xe7,0xf0,0xe7,0x0c,0xdb,0xf3,0xf5,0xf0,0xf8,0x05,
0xd0,0x0d,0xf5,0xf9,0xe8,0xf6,0x01,0x33,0xe2,0x0d,0xfe,0x11,0xf7,0x05,0xcd,0xd9,0x13,0x04,0xf8,0x02,0xf1,0xea,0x19,0xf7,0xee,0xed,0xeb,0xf7,0x0a,0xec,0xf8,0x01,
0x09,0x02,0x32,0xb0,0xf7,0xec,0xff,0x04,0xff,0xe6,0xde,0x08,0x19,0x02,0xfb,0x39,0x41,0xf8,0xfe,0xe1,0xfc,0x26,0xdb,0x0f,0xe5,0xe7,0xca,0xfd,0x06,0xd9,0xf7,0x10,
0x51,0xf9,0x0c,0x12,0x05,0x09,0x16,0x29,0x19,0xfa,0x29,0xfc,0x16,0x0e,0x10,0xdf,0xfc,0x03,0xfa,0x12,0xf1,0x09,0x1c,0xfc,0x19,0x26,0x2f,0x38,0x15,0x1e,0xe8,0xfb,
0xfa,0x02,0x09,0x09,0x1f,0xff,0x0f,0x09,0x1e,0xe3,0xfd,0x10,0x01,0x1b,0xe8,0x0d,0xcf,0xfb,0xfc,0x31,0xee,0xfb,0x19,0xf0,0x17,0xfa,0x41,0x13,0x1a,0xfa,0xf3,0xe8,
0x09,0xf6,0x2f,0xfd,0xe3,0xec,0x19,0xf8,0xdd,0x0a,0x03,0x39,0x16,0x1e,0x57,0x0a,0x08,0x26,0x09,0xc8,0x1a,0x15,0x19,0xea,0x07,0x12,0x04,0x0d,0x00,0xf5,0x1a,0x22,
0xff,0xc3,0xec,0xea,0xee,0x06,0x12,0xef,0xd9,0x19,0xdb,0x28,0xf9,0xef,0xfc,0xb8,0xfb,0xd5,0x1b,0xed,0xf9,0xf9,0x00,0xef,0x2a,0xdb,0xf4,0x0a,0xd1,0xf1,0x09,0xea,
0xec,0x03,0xf4,0x0d,0xed,0xf2,0xea,0x1b,0xd6,0xfb,0x03,0x16,0x03,0x0b,0xfa,0x10,0xf4,0x03,0x04,0x12,0xf3,0xee,0x0b,0xd6,0xef,0x25,0xf6,0x24,0x11,0xf0,0x1d,0xfb,
0x05,0x12,0xdf,0x0d,0xe1,0xe3,0x05,0x02,0x21,0xe4,0x10,0xf7,0xfb,0xf4,0xf6,0xf5,0xe2,0x08,0xec,0xff,0xf3,0xde,0x31,0xf2,0x23,0x05,0x01,0x0d,0xf5,0x2d,0x10,0xf8,
0x03,0x1f,0x30,0x04,0x00,0xef,0xe9,0x20,0xff,0x03,0xf6,0x0a,0x1e,0x27,0x15,0xfb,0x18,0x00,0xdd,0x17,0x15,0x14,0x0a,0xfa,0x05,0xfe,0x23,0x0a,0x21,0x09,0xfb,0x02,
0x05,0xff,0x2e,0x00,0xfa,0x00,0xf5,0xf0,0x00,0x23,0x12,0x09,0x0f,0x07,0xfe,0xf4,0xf4,0xf8,0x12,0xe6,0x17,0xfb,0xf4,0x20,0x09,0xfc,0x03,0x11,0xee,0x03,0x22,0xf0,
0x06,0x05,0xef,0x05,0xe8,0xfb,0x0e,0xf8,0xf9,0xef,0x11,0xe4,0x04,0xf7,0x01,0xff,0x14,0x18,0x00,0xf1,0xe5,0xd8,0xf8,0xf7,0x0b,0x25,0xf4,0xe7,0x07,0x0f,0xf2,0xe3,
0x09,0xe3,0xff,0xd1,0xd3,0xef,0x02,0xf5,0xf4,0xfc,0xfd,0xef,0xf4,0x12,0xe5,0xe1,0x0b,0xf6,0x05,0xf4,0x06,0x0b,0x04,0xf0,0x14,0xfe,0xe2,0x02,0x12,0x06,0xf8,0xe2,
0x34,0xe8,0x12,0x01,0x20,0xfe,0x1e,0xb3,0xe9,0x16,0x17,0xfe,0xf3,0xf6,0x11,0x19,0x01,0xef,0x0d,0xf3,0xed,0xff,0x3b,0xf9,0x0c,0xf0,0x12,0x29,0xf7,0xf8,0xfa,0xfa,
0xf7,0x36,0x15,0x06,0x1f,0x17,0xeb,0x07,0xe9,0xfd,0x05,0xfb,0x26,0x02,0x1f,0xff,0xee,0x06,0xf2,0x15,0x1d,0xf0,0xe0,0xda,0x0f,0x05,0xfb,0x2d,0xf7,0xfa,0x02,0x0e,
0x1c,0xcf,0xba,0x1a,0x01,0xf2,0xf4,0xd3,0x02,0x10,0xf7,0xdd,0x13,0xee,0xfe,0x15,0xe4,0x0e,0x00,0x10,0x21,0xf8,0xe1,0xf3,0x15,0xf6,0x04,0xf4,0x09,0xf6,0x29,0xf1,
0xed,0xe3,0x3b,0xf3,0xe8,0x10,0xf3,0xfe,0x08,0xfb,0x16,0xeb,0xfc,0xf4,0xf5,0x34,0x00,0x2b,0xfa,0x28,0x0d,0xf3,0xf4,0xe9,0x0a,0x0a,0x14,0x25,0x03,0xf2,0x02,0xdc,
0xfc,0x0c,0xee,0xe9,0xc6,0xe2,0x07,0xfd,0xf6,0xfe,0x10,0xfc,0x22,0xf9,0xf6,0x08,0xf8,0xeb,0x04,0xc6,0xfb,0x13,0x0d,0xf9,0xfd,0x1c,0x01,0x07,0x17,0x00,0xdc,0x01,
0xfc,0xe4,0x1c,0xf5,0x16,0x06,0xfc,0xfe,0xc6,0xe9,0xfd,0xe6,0x16,0x28,0x04,0x14,0xff,0x02,0x14,0x1c,0xd6,0xef,0x01,0x03,0xfe,0xeb,0x08,0xfc,0x00,0x04,0xf5,0xef,
0x16,0xdc,0xf3,0x22,0x31,0x0b,0x06,0xfe,0xec,0x06,0xfa,0xfe,0x0b,0x0e,0x01,0x05,0xfb,0xf6,0x09,0x43,0x10,0x17,0xf4,0xef,0xf3,0x05,0x04,0x0a,0xe5,0x05,0x0a,0xeb,
0xf7,0x13,0xfd,0x42,0x06,0xf6,0x0b,0x11,0x25,0xe8,0xf4,0xf4,0xd1,0x12,0x0b,0x13,0xfe,0xfe,0xfc,0x17,0x12,0xe4,0xe2,0xfc,0xea,0x1a,0x10,0xde,0x0c,0x14,0x16,0xeb,
0xd1,0xea,0x06,0xf4,0x32,0xea,0xec,0xfc,0xd7,0x09,0xf7,0x04,0x06,0xf8,0xe4,0x05,0xf4,0xfd,0xf0,0xfa,0xff,0x02,0x01,0xf2,0x07,0x08,0xd1,0x00,0xfa,0xdf,0x06,0x0f,
0x0a,0xff,0xec,0x18,0xcd,0xd9,0x0b,0xf2,0x1e,0xfe,0x15,0x0e,0xfe,0xf7,0x01,0xf5,0x07,0xfa,0x14,0xe0,0x19,0x0e,0xf8,0x10,0xdc,0xe7,0x19,0x0f,0xea,0x11,0xf3,0xfa,
0xfd,0xf2,0xee,0x05,0x2f,0x1e,0xf9,0x0c,0xf8,0x01,0xf0,0x02,0x1b,0xed,0xf1,0x0d,0xd9,0x01,0x09,0x0f,0xf9,0x0b,0x09,0x09,0xf6,0xf6,0x0b,0xf6,0x0a,0x1d,0xe9,0x09,
0x00,0x0e,0xfe,0xff,0x1b,0x00,0x17,0xf9,0xef,0x06,0x02,0x0d,0xea,0xf9,0xff,0x1a,0x0b,0x09,0xe8,0x20,0x28,0xf1,0x17,0x16,0xee,0x09,0xea,0xed,0x0b,0x10,0xfd,0x13,
0xe6,0xe9,0xf7,0x0d,0xf0,0xee,0x0c,0xf2,0x0d,0xe2,0xf1,0x2a,0xef,0x12,0xe9,0x01,0x0b,0x08,0x01,0xf0,0x05,0xfc,0x13,0xfe,0xe1,0xfc,0x14,0xf1,0xed,0xec,0x1f,0xe2,
0x0f,0x0c,0xec,0xe5,0x17,0x07,0xec,0x01,0xf5,0xde,0xd4,0x08,0x05,0x19,0x13,0xdc,0x02,0xf5,0x01,0xf6,0x00,0x0a,0x09,0x11,0xde,0xf9,0xf1,0xf4,0xff,0x13,0xf2,0x06,
0x24,0xfa,0xe6,0x01,0x14,0x0f,0x20,0x2c,0xe5,0xf8,0xed,0xfb,0xe8,0x05,0x22,0x12,0xb6,0xfd,0xe7,0x26,0xc8,0xed,0x0b,0xea,0x05,0x0a,0xfc,0xf6,0xfa,0x02,0xe0,0x14,
0x07,0x0c,0x1d,0xea,0xe4,0xdf,0x31,0x02,0x14,0xf9,0xf6,0x00,0xcb,0x04,0x35,0x32,0xf0,0xea,0xed,0x06,0x03,0xcb,0x0c,0xeb,0xe8,0x05,0x02,0x29,0xf0,0x28,0xfa,0xd6,
0x21,0xcf,0x0b,0x0b,0x51,0x1c,0xf2,0x22,0x09,0x2c,0x06,0x00,0x21,0x0c,0xe4,0xea,0xf3,0x08,0x07,0x01,0xef,0x08,0x11,0xea,0xff,0xe7,0x04,0xee,0x12,0xff,0xcc,0xe8,
0x0a,0xfe,0xea,0x10,0x00,0x27,0x28,0xd6,0xe5,0xbb,0x0b,0xfe,0x08,0xe6,0xff,0x23,0x06,0x06,0xd0,0x19,0xf4,0xfb,0xf3,0xfc,0xf2,0x12,0xf0,0xef,0xd6,0xf9,0x13,0x01,
0xec,0x19,0x48,0xf3,0x01,0xf3,0x03,0x0e,0xfd,0xf8,0x42,0xe4,0xfc,0x0b,0xf3,0x08,0x28,0x0f,0x1b,0xc7,0x19,0x00,0x1c,0xdb,0x04,0xdb,0x18,0xd0,0xf0,0x11,0xf0,0xde,
0xd6,0x3a,0x03,0x15,0x05,0xe3,0xda,0xf4,0xc8,0xe5,0x19,0x02,0xf1,0x09,0x14,0x10,0xfb,0xed,0xf4,0xed,0xef,0xf1,0x16,0x0e,0xf1,0x09,0x0c,0xfd,0x0f,0xf6,0xf2,0xfb,
0x00,0x00,0x00,0x00,0x00,0x00,0x00,0x00,0x00,0x00,0x00,0x00,0x00,0x00,0x00,0x00,0x00,0x00,0x00,0x00,0x00,0x00,0x00,0x00,0x00,0x00,0x00,0x00,0x00,0x00,0x00,0x00,
};
DEFINE_TENSOR(layer_229_convolution_filters, 1, 2, 4096, layer_229_convolution_filters_data)
__attribute__((aligned(4))) 
static const unsigned char layer_229_convolution_requantize_data[] = {
0xc5,0x6e,0xab,0x3b,0x00,0x00,0x00,0x00,0x00,0x00,0x00,0x00,0x00,0x00,0x00,0x00,0x00,0x00,0x00,0x00,0x00,0x00,0x00,0x00,0x00,0x00,0x00,0x00,0x00,0x00,0x00,0x00,
0x00,0x00,0x00,0x00,0x00,0x00,0x00,0x00,0x00,0x00,0x00,0x00,0x00,0x00,0x00,0x00,0x00,0x00,0x00,0x00,0x00,0x00,0x00,0x00,0x00,0x00,0x00,0x00,0x00,0x00,0x00,0x00,
0x00,0x00,0x00,0x00,0x00,0x00,0x00,0x00,0x00,0x00,0x00,0x00,0x00,0x00,0x00,0x00,0x00,0x00,0x00,0x00,0x00,0x00,0x00,0x00,0x00,0x00,0x00,0x00,0x00,0x00,0x00,0x00,
0x00,0x00,0x00,0x00,0x00,0x00,0x00,0x00,0x00,0x00,0x00,0x00,0x00,0x00,0x00,0x00,0x00,0x00,0x00,0x00,0x00,0x00,0x00,0x00,0x00,0x00,0x00,0x00,0x00,0x00,0x00,0x00,
0x00,0x00,0x00,0x00,};
DEFINE_TENSOR(layer_229_convolution_requantize, 4, 1, 4, layer_229_convolution_requantize_data)
__attribute__((aligned(4))) 
static const unsigned char layer_232_convolution_bias_data[] = {
0xfe,0xff,0xff,0xff,0xf8,0xff,0xff,0xff,0xf9,0xff,0xff,0xff,0x11,0x00,0x00,0x00,0xfd,0xff,0xff,0xff,0x01,0x00,0x00,0x00,0x04,0x00,0x00,0x00,0xf6,0xff,0xff,0xff,
0x05,0x00,0x00,0x00,0xfd,0xff,0xff,0xff,0xfb,0xff,0xff,0xff,0x06,0x00,0x00,0x00,0x12,0x00,0x00,0x00,0x05,0x00,0x00,0x00,0xfa,0xff,0xff,0xff,0x10,0x00,0x00,0x00,
0x02,0x00,0x00,0x00,0x04,0x00,0x00,0x00,0xfe,0xff,0xff,0xff,0xfb,0xff,0xff,0xff,0x06,0x00,0x00,0x00,0xf9,0xff,0xff,0xff,0xf3,0xff,0xff,0xff,0x0c,0x00,0x00,0x00,
0xfa,0xff,0xff,0xff,0xfe,0xff,0xff,0xff,0x02,0x00,0x00,0x00,0x04,0x00,0x00,0x00,0xfa,0xff,0xff,0xff,0xfb,0xff,0xff,0xff,0xf6,0xff,0xff,0xff,0x06,0x00,0x00,0x00,
0x0d,0x00,0x00,0x00,0x00,0x00,0x00,0x00,0xf8,0xff,0xff,0xff,0xf4,0xff,0xff,0xff,0x0e,0x00,0x00,0x00,0xfb,0xff,0xff,0xff,0xfb,0xff,0xff,0xff,0x15,0x00,0x00,0x00,
0x02,0x00,0x00,0x00,0x10,0x00,0x00,0x00,0xfb,0xff,0xff,0xff,0x02,0x00,0x00,0x00,0x0d,0x00,0x00,0x00,0x00,0x00,0x00,0x00,0x07,0x00,0x00,0x00,0x13,0x00,0x00,0x00,
0xf9,0xff,0xff,0xff,0x04,0x00,0x00,0x00,0xfd,0xff,0xff,0xff,0xfb,0xff,0xff,0xff,0x03,0x00,0x00,0x00,0xf5,0xff,0xff,0xff,0x07,0x00,0x00,0x00,0xfe,0xff,0xff,0xff,
0xf6,0xff,0xff,0xff,0x05,0x00,0x00,0x00,0x08,0x00,0x00,0x00,0x06,0x00,0x00,0x00,0xf8,0xff,0xff,0xff,0xfd,0xff,0xff,0xff,0xfc,0xff,0xff,0xff,0xf6,0xff,0xff,0xff,
0x00,0x00,0x00,0x00,0x00,0x00,0x00,0x00,0x00,0x00,0x00,0x00,0x00,0x00,0x00,0x00,0x00,0x00,0x00,0x00,0x00,0x00,0x00,0x00,0x00,0x00,0x00,0x00,0x00,0x00,0x00,0x00,
0x00,0x00,0x00,0x00,0x00,0x00,0x00,0x00,0x00,0x00,0x00,0x00,0x00,0x00,0x00,0x00,0x00,0x00,0x00,0x00,0x00,0x00,0x00,0x00,0x00,0x00,0x00,0x00,0x00,0x00,0x00,0x00,
0x00,0x00,0x00,0x00,0x00,0x00,0x00,0x00,0x00,0x00,0x00,0x00,0x00,0x00,0x00,0x00,0x00,0x00,0x00,0x00,0x00,0x00,0x00,0x00,0x00,0x00,0x00,0x00,0x00,0x00,0x00,0x00,
0x00,0x00,0x00,0x00,0x00,0x00,0x00,0x00,0x00,0x00,0x00,0x00,0x00,0x00,0x00,0x00,0x00,0x00,0x00,0x00,0x00,0x00,0x00,0x00,0x00,0x00,0x00,0x00,0x00,0x00,0x00,0x00,
};
DEFINE_TENSOR(layer_232_convolution_bias, 4, 4, 256, layer_232_convolution_bias_data)
__attribute__((aligned(4))) 
static const unsigned char layer_232_convolution_filters_data[] = {
0x30,0x08,0x10,0x13,0x10,0x11,0xef,0xda,0x09,0x16,0x03,0xf9,0x35,0x05,0x0a,0x15,0x14,0x24,0x98,0xf1,0x37,0xe5,0x12,0x48,0x2e,0x31,0x4c,0xc5,0xf9,0x00,0x0e,0xbd,
0xe4,0xea,0xec,0xcd,0xef,0xc3,0xbc,0x4c,0x12,0x23,0x38,0x0b,0x35,0x2a,0x0c,0xc9,0x10,0x04,0xe4,0x4b,0xfb,0xbe,0xcf,0x3e,0x26,0xcf,0xde,0xf2,0xd3,0x09,0xec,0x35,
0xf1,0x3b,0xf4,0x26,0x37,0x04,0x43,0x11,0xa7,0xf3,0x5b,0x05,0xb8,0x4e,0xea,0xd9,0xfc,0x43,0x2d,0x22,0xaa,0xa8,0xb9,0x28,0x4f,0x32,0x26,0xf6,0x03,0x24,0x14,0x02,
0x33,0x12,0x06,0x14,0xca,0xc9,0x33,0xe8,0xe1,0x12,0xba,0xfd,0xd0,0xe0,0xe9,0xb9,0x04,0xc8,0x14,0xbc,0xd6,0x01,0x12,0x19,0x23,0x01,0xe5,0xd4,0xc4,0xd6,0xe8,0xec,
0xfb,0x26,0x0b,0x24,0x31,0x3b,0x4a,0xdf,0xd7,0x09,0xa9,0xb5,0x1c,0xdd,0xc6,0x21,0x07,0xbf,0x04,0xda,0xbb,0x11,0xe9,0x5a,0x31,0x3d,0xea,0xc2,0x3a,0x99,0x00,0xf6,
0xbb,0x33,0x07,0xf8,0x0c,0xd6,0x10,0x14,0x05,0x25,0x3a,0x11,0x14,0x26,0xe7,0x07,0x03,0x06,0x0f,0x13,0xe9,0xd3,0xd2,0xe2,0x01,0x04,0x15,0x28,0xc3,0x25,0x1e,0x04,
0x0e,0x15,0x0b,0x07,0x05,0x1d,0x49,0x50,0xc4,0xef,0x59,0xe6,0x29,0xdd,0x7f,0xfe,0xd0,0xf2,0xc4,0x35,0x0b,0xac,0xc6,0xfd,0x43,0x10,0x21,0x53,0x17,0x0f,0x37,0xc2,
0xb5,0x0b,0x12,0xf9,0x17,0x13,0x0e,0xf0,0x10,0x13,0x1b,0xf6,0x36,0x0b,0x00,0x18,0xf1,0xc7,0xcf,0x29,0x08,0xe2,0x36,0xf8,0xb1,0xf7,0xde,0xe0,0xe7,0x19,0xd4,0x1b,
0x23,0xfb,0x28,0x2f,0x4c,0xd4,0xf6,0x54,0x06,0x0e,0x55,0x1f,0xfa,0xc6,0x33,0xf2,0x58,0x44,0x6a,0x2e,0x11,0xc8,0xe4,0x49,0xf4,0xa5,0x10,0xe4,0xd8,0x09,0xf4,0xe9,
0xc1,0xf7,0xee,0xe3,0x2c,0xbc,0xcc,0xef,0xda,0x32,0x02,0xe2,0x1d,0xe2,0x00,0x47,0xcd,0xdd,0xff,0x13,0x36,0xe9,0xfe,0x33,0x0c,0x12,0x01,0x20,0x51,0x06,0x25,0x45,
0xe4,0x4b,0x13,0x2a,0x2b,0xd6,0xdd,0xc3,0x2c,0xb2,0x9d,0xd2,0x09,0x17,0xe9,0xee,0x13,0x1b,0x0d,0x12,0x23,0x1d,0xf5,0xde,0x04,0x37,0xfb,0x2e,0x1e,0x39,0x28,0xd1,
0xd3,0xf1,0xbf,0xf7,0xf3,0xe7,0xd3,0xe8,0x25,0x41,0x2f,0xd6,0x11,0xda,0xe4,0xdb,0xe4,0x8e,0xc0,0x47,0xce,0xdb,0xc8,0xf5,0x2f,0xa9,0x2c,0x07,0xe0,0xd9,0xef,0x5f,
0x14,0xf9,0x3d,0x1e,0x23,0x1f,0xf5,0xeb,0xfb,0xee,0xdf,0xf1,0x14,0x08,0xb8,0xa6,0x05,0x96,0x00,0xd6,0x14,0xb3,0x20,0xba,0xa3,0x25,0x0b,0x28,0x19,0x5d,0xc3,0x0c,
0xca,0xae,0xf0,0x49,0xf4,0xe6,0xe7,0x10,0xdf,0xfc,0xec,0x05,0xa1,0xef,0xc7,0xca,0x2a,0x15,0x03,0xd6,0x43,0x45,0xe5,0x4f,0x43,0x9e,0x1c,0x30,0xb5,0x0f,0x1f,0xb7,
0xe2,0x37,0x20,0xe4,0xfe,0x16,0x23,0xd8,0xc9,0x7e,0xfe,0x57,0x0f,0xca,0x53,0xee,0xef,0x03,0xfe,0x18,0xdc,0xe4,0xe2,0xf8,0xca,0xe6,0x28,0x11,0x55,0x30,0xd6,0xb7,
0x4e,0x25,0x33,0x27,0x21,0x47,0x12,0xe7,0xf3,0xe1,0xa4,0x48,0xbd,0xdb,0x43,0xf6,0xe3,0x0b,0x00,0x0e,0x38,0x02,0xf5,0x34,0xd0,0xe5,0x2f,0x7b,0x1f,0x44,0x2f,0x46,
0xd0,0x3c,0xf3,0xd3,0x0c,0xf3,0xd2,0x33,0xfd,0xaf,0xef,0xc1,0xe2,0xc5,0x0a,0xe1,0x12,0x05,0x35,0xf1,0x1c,0x9a,0x22,0x3a,0xe2,0x0c,0xd8,0xbf,0xcb,0x52,0x04,0x4c,
0x30,0x62,0xda,0xc4,0x24,0xf5,0xf7,0x07,0x1d,0xe4,0x07,0x29,0x24,0x1c,0x09,0xf2,0x39,0x0d,0x01,0x2a,0x12,0xfd,0x03,0x35,0x1f,0x43,0x05,0x1f,0x05,0x22,0x0b,0x00,
0x00,0x00,0x00,0x00,0x00,0x00,0x00,0x00,0x00,0x00,0x00,0x00,0x00,0x00,0x00,0x00,0x00,0x00,0x00,0x00,0x00,0x00,0x00,0x00,0x00,0x00,0x00,0x00,0x00,0x00,0x00,0x00,
};
DEFINE_TENSOR(layer_232_convolution_filters, 1, 2, 576, layer_232_convolution_filters_data)
__attribute__((aligned(4))) 
static const unsigned char layer_232_convolution_requantize_data[] = {
0xc3,0x5d,0x2d,0x3c,0x00,0x00,0x00,0x00,0x00,0x00,0x00,0x00,0x00,0x00,0x00,0x00,0x00,0x00,0x00,0x00,0x00,0x00,0x00,0x00,0x00,0x00,0x00,0x00,0x00,0x00,0x00,0x00,
0x00,0x00,0x00,0x00,0x00,0x00,0x00,0x00,0x00,0x00,0x00,0x00,0x00,0x00,0x00,0x00,0x00,0x00,0x00,0x00,0x00,0x00,0x00,0x00,0x00,0x00,0x00,0x00,0x00,0x00,0x00,0x00,
0x00,0x00,0x00,0x00,0x00,0x00,0x00,0x00,0x00,0x00,0x00,0x00,0x00,0x00,0x00,0x00,0x00,0x00,0x00,0x00,0x00,0x00,0x00,0x00,0x00,0x00,0x00,0x00,0x00,0x00,0x00,0x00,
0x00,0x00,0x00,0x00,0x00,0x00,0x00,0x00,0x00,0x00,0x00,0x00,0x00,0x00,0x00,0x00,0x00,0x00,0x00,0x00,0x00,0x00,0x00,0x00,0x00,0x00,0x00,0x00,0x00,0x00,0x00,0x00,
0x00,0x00,0x00,0x00,};
DEFINE_TENSOR(layer_232_convolution_requantize, 4, 1, 4, layer_232_convolution_requantize_data)
__attribute__((aligned(4))) 
static const unsigned char layer_235_convolution_bias_data[] = {
0x07,0x00,0x00,0x00,0x05,0x00,0x00,0x00,0xfa,0xff,0xff,0xff,0x08,0x00,0x00,0x00,0x08,0x00,0x00,0x00,0x08,0x00,0x00,0x00,0xf7,0xff,0xff,0xff,0xff,0xff,0xff,0xff,
0x05,0x00,0x00,0x00,0x08,0x00,0x00,0x00,0x0c,0x00,0x00,0x00,0x0a,0x00,0x00,0x00,0x0e,0x00,0x00,0x00,0xeb,0xff,0xff,0xff,0x00,0x00,0x00,0x00,0x03,0x00,0x00,0x00,
0x06,0x00,0x00,0x00,0x06,0x00,0x00,0x00,0x01,0x00,0x00,0x00,0xfa,0xff,0xff,0xff,0x12,0x00,0x00,0x00,0x0c,0x00,0x00,0x00,0x01,0x00,0x00,0x00,0x07,0x00,0x00,0x00,
0x0e,0x00,0x00,0x00,0x0f,0x00,0x00,0x00,0xf4,0xff,0xff,0xff,0xf5,0xff,0xff,0xff,0x03,0x00,0x00,0x00,0xfe,0xff,0xff,0xff,0xfc,0xff,0xff,0xff,0x05,0x00,0x00,0x00,
0x08,0x00,0x00,0x00,0x0b,0x00,0x00,0x00,0x02,0x00,0x00,0x00,0x0c,0x00,0x00,0x00,0x02,0x00,0x00,0x00,0x0e,0x00,0x00,0x00,0xf4,0xff,0xff,0xff,0x02,0x00,0x00,0x00,
0xf7,0xff,0xff,0xff,0x0d,0x00,0x00,0x00,0xfa,0xff,0xff,0xff,0x0a,0x00,0x00,0x00,0x0b,0x00,0x00,0x00,0xfc,0xff,0xff,0xff,0xff,0xff,0xff,0xff,0xf4,0xff,0xff,0xff,
0xf4,0xff,0xff,0xff,0xff,0xff,0xff,0xff,0x09,0x00,0x00,0x00,0x08,0x00,0x00,0x00,0x07,0x00,0x00,0x00,0xf7,0xff,0xff,0xff,0xfb,0xff,0xff,0xff,0x02,0x00,0x00,0x00,
0xff,0xff,0xff,0xff,0x05,0x00,0x00,0x00,0xfd,0xff,0xff,0xff,0x0f,0x00,0x00,0x00,0xf1,0xff,0xff,0xff,0xfb,0xff,0xff,0xff,0x0a,0x00,0x00,0x00,0xfe,0xff,0xff,0xff,
0x00,0x00,0x00,0x00,0x00,0x00,0x00,0x00,0x00,0x00,0x00,0x00,0x00,0x00,0x00,0x00,0x00,0x00,0x00,0x00,0x00,0x00,0x00,0x00,0x00,0x00,0x00,0x00,0x00,0x00,0x00,0x00,
0x00,0x00,0x00,0x00,0x00,0x00,0x00,0x00,0x00,0x00,0x00,0x00,0x00,0x00,0x00,0x00,0x00,0x00,0x00,0x00,0x00,0x00,0x00,0x00,0x00,0x00,0x00,0x00,0x00,0x00,0x00,0x00,
0x00,0x00,0x00,0x00,0x00,0x00,0x00,0x00,0x00,0x00,0x00,0x00,0x00,0x00,0x00,0x00,0x00,0x00,0x00,0x00,0x00,0x00,0x00,0x00,0x00,0x00,0x00,0x00,0x00,0x00,0x00,0x00,
0x00,0x00,0x00,0x00,0x00,0x00,0x00,0x00,0x00,0x00,0x00,0x00,0x00,0x00,0x00,0x00,0x00,0x00,0x00,0x00,0x00,0x00,0x00,0x00,0x00,0x00,0x00,0x00,0x00,0x00,0x00,0x00,
};
DEFINE_TENSOR(layer_235_convolution_bias, 4, 4, 256, layer_235_convolution_bias_data)
__attribute__((aligned(4))) 
static const unsigned char layer_235_convolution_filters_data[] = {
0xf1,0x28,0x32,0xbf,0xe1,0xf5,0xf0,0xfa,0x1d,0xf8,0x05,0xf2,0x24,0xf6,0x19,0x1a,0xde,0xfc,0x32,0xba,0xfb,0x1b,0xf6,0x07,0x0b,0xdb,0x31,0x07,0xf0,0xe4,0xd5,0x05,
0x00,0x17,0x23,0xd1,0xec,0xb9,0x5c,0x2f,0xcd,0x23,0xbb,0x9d,0xf5,0xd1,0x18,0x15,0xdd,0x0c,0xfa,0x39,0x00,0x14,0x34,0x27,0xec,0xea,0xe0,0xd2,0xe4,0x10,0x1e,0xee,
0xe9,0x0e,0x0b,0xdd,0xfa,0x01,0xe5,0x00,0xf7,0x0d,0xf4,0x19,0xe8,0xe2,0xe4,0xf1,0x17,0xff,0x04,0xf8,0xff,0xec,0x1e,0xd5,0x13,0xd4,0x14,0x1d,0xf6,0xfa,0x2a,0x0e,
0x0f,0xe6,0xfa,0x2f,0xfc,0xf8,0xe4,0x03,0x0d,0xf4,0x07,0xf7,0xf7,0xee,0xe2,0x18,0xf8,0x06,0xd3,0x09,0xd5,0x19,0x1f,0xec,0x05,0x10,0x15,0xf5,0xf8,0xcc,0xdd,0x39,
0xff,0x38,0x45,0xe9,0xec,0xd3,0x2d,0x0e,0x28,0x18,0x1e,0xc6,0xff,0xfd,0x09,0x12,0x26,0xee,0xec,0x16,0x01,0xf0,0x10,0x27,0xf7,0x2b,0xf4,0xf7,0x0d,0x0f,0x09,0x16,
0xf6,0x0b,0x11,0xda,0x12,0xf4,0x06,0x05,0xc7,0xe4,0x21,0x0c,0x1e,0x0b,0xed,0x31,0xea,0xf0,0xe3,0x07,0x0b,0xf8,0xf7,0x25,0x58,0x0c,0x38,0x28,0xd9,0x2a,0x07,0x0d,
0xd7,0x06,0xe9,0x01,0xe7,0xf3,0xf9,0x11,0x03,0x0a,0xc4,0x0f,0x09,0x13,0xf8,0xdc,0x0f,0x18,0xdd,0x00,0x10,0xec,0x31,0xe8,0xfb,0xf3,0x24,0xee,0xe6,0x02,0xf3,0x14,
0x28,0xf4,0x19,0x2a,0x15,0x00,0xfb,0xe8,0xfb,0xff,0xf2,0xee,0xe8,0x1b,0xfd,0xe0,0xc4,0xfe,0xe4,0xcc,0xed,0xfb,0xe6,0x0e,0x12,0xf5,0xe7,0x04,0x27,0xcc,0x08,0xfb,
0xfd,0xc8,0xf4,0x05,0xf3,0xfb,0x0a,0x1c,0x17,0x0f,0xd7,0x16,0xdd,0x0a,0xdf,0xf7,0x0b,0xfd,0xef,0x01,0xfa,0xe3,0xef,0x15,0x0e,0x07,0xc5,0x11,0xf1,0x02,0x28,0xee,
0x12,0x03,0x11,0x18,0xde,0x0b,0xe0,0x17,0x19,0xea,0xeb,0xef,0xde,0x25,0xff,0xeb,0xf7,0x01,0xee,0xed,0xe1,0x08,0xf8,0x03,0xf6,0xff,0x09,0xf1,0x13,0xeb,0xf1,0xdf,
0xc5,0xce,0x3e,0xe6,0x08,0xed,0xf0,0xde,0x06,0x13,0xe7,0xde,0x0e,0xdc,0xca,0x21,0xe2,0x05,0xe9,0xcb,0xec,0xa8,0xf9,0xe1,0xf6,0x3a,0xd3,0x35,0x0d,0xdb,0xe8,0xcf,
0xfb,0x04,0x22,0xc6,0x3a,0xeb,0x16,0x1d,0xfc,0x28,0xdb,0x08,0x21,0xf4,0xf2,0x0d,0xfb,0x28,0xf1,0x0d,0xc5,0x11,0x30,0x0e,0x0a,0xf6,0x15,0x3e,0xc7,0x09,0x07,0xb9,
0x0f,0x10,0xfc,0xdf,0xff,0xef,0x05,0xda,0xff,0xeb,0x22,0x02,0x25,0x13,0xe9,0x1a,0xe3,0xec,0x08,0x4b,0x0a,0xfd,0xf7,0x02,0x03,0x32,0xf9,0x0a,0x16,0x1f,0xfd,0xe9,
0x31,0x0a,0x06,0x02,0xfa,0x39,0xf8,0x02,0x24,0x02,0xfb,0x32,0x12,0xf9,0x03,0x01,0x13,0x12,0xee,0x24,0x05,0xef,0xe7,0x0a,0x03,0x07,0x0b,0x33,0x25,0x1f,0x08,0xf5,
0xdb,0xda,0xf3,0xf9,0x03,0xf3,0x16,0xf9,0x02,0x00,0x9b,0xfb,0xee,0x1e,0xd7,0x01,0x30,0xf3,0xef,0xea,0xe8,0x24,0x0e,0x11,0x00,0xfa,0x0a,0xe4,0xe4,0x0b,0xe1,0xd0,
0xd8,0x41,0x19,0xfb,0x11,0xff,0xf7,0xf3,0xcd,0x1a,0x34,0xfa,0x14,0x3b,0xf9,0x13,0x19,0x6a,0x02,0xb2,0x24,0xfe,0x41,0xf1,0x00,0x0b,0xfd,0xe2,0x06,0xfd,0xe8,0xed,
0xe2,0xc0,0x06,0x13,0x17,0x14,0x1e,0xf7,0x10,0x08,0xf8,0xfc,0xee,0xf1,0xd8,0xfe,0x1b,0x0d,0x2e,0xe8,0x1f,0x1a,0x11,0x1c,0xf0,0xcf,0xc6,0xf6,0xfe,0x08,0xf7,0xfe,
0xd6,0xfd,0x12,0xfd,0xf0,0x07,0xfb,0xed,0x14,0x24,0xc4,0x07,0xd9,0xef,0xe7,0xf8,0x09,0xef,0x01,0xcd,0xf5,0xe1,0x24,0xf6,0xfa,0x2b,0x09,0x01,0x27,0xbf,0x0c,0x2b,
0xd1,0xd3,0x0a,0xea,0x0f,0xf9,0x07,0x00,0xdf,0xfd,0xd8,0x07,0xea,0xfc,0xfb,0xf1,0xf8,0xea,0x2b,0xe5,0xed,0xfe,0x18,0x14,0x0c,0xeb,0xe8,0xd4,0x17,0xd5,0x0c,0x3a,
0xeb,0xef,0xe1,0x2b,0xf6,0x12,0xe8,0xd2,0x20,0xe7,0xe6,0x14,0xf2,0x07,0x26,0x0d,0x09,0xed,0x00,0xf4,0xde,0x24,0x00,0xda,0xfb,0x32,0xd8,0x13,0xd4,0x05,0xf9,0x06,
0xea,0x10,0xfe,0xe9,0x0e,0xf2,0xec,0xe3,0xfc,0x25,0xfd,0xf4,0x0a,0x02,0xf9,0xfe,0xfb,0xd6,0xd6,0x01,0x12,0xbe,0x0f,0xfb,0x00,0xe4,0x1f,0x07,0xf7,0x15,0xea,0xe6,
0xf7,0x02,0xf9,0x31,0xeb,0xff,0xca,0xf7,0x17,0xf8,0x21,0x37,0x0a,0xfd,0x04,0xf6,0xea,0xec,0xf3,0xfa,0xed,0xdf,0xda,0xd5,0x05,0xff,0x0f,0xe8,0x1a,0xed,0xe6,0xc2,
0x11,0x08,0x06,0xe3,0x0b,0x01,0x0d,0x21,0xfb,0xfe,0xfd,0x02,0x18,0x0b,0xe8,0xd0,0x22,0x04,0xf9,0xd5,0x03,0xd3,0x28,0x09,0x14,0xe5,0xdd,0xe2,0x0d,0x0b,0xea,0x13,
0x08,0x0e,0xe9,0x0a,0x01,0xe8,0xe8,0xdc,0xfd,0xe9,0xdb,0xe7,0x0e,0xdc,0x06,0xdb,0xed,0x0e,0x33,0xd8,0x07,0xf5,0xe6,0xe7,0x05,0x19,0xfa,0xeb,0x18,0xcb,0xf7,0xe4,
0xd2,0xdf,0x16,0xef,0x18,0xf5,0x17,0xf7,0xf4,0xf3,0xf8,0xf6,0x17,0xe3,0xec,0xee,0x12,0xf0,0xd6,0x07,0xf7,0xe2,0xf1,0xfc,0xf4,0xdb,0xdd,0x0b,0xd8,0xee,0x1a,0xf3,
0xef,0xfe,0xdf,0x00,0x01,0xf7,0xe1,0xfe,0xdd,0xe5,0xf1,0x10,0xe6,0xff,0xf8,0x03,0x06,0xeb,0xfb,0xf7,0x13,0x16,0x0e,0xd5,0x0e,0xfd,0xe9,0x0e,0x01,0xe1,0xdb,0xf8,
0xfb,0x04,0x13,0xf0,0x41,0xe1,0x22,0x32,0xfe,0x31,0xfd,0x1f,0xd5,0x03,0xfb,0x0d,0x22,0xfa,0x18,0xdb,0xf8,0x34,0x2f,0x00,0x2f,0x01,0x47,0x00,0x1d,0x04,0x33,0x23,
0xff,0x1b,0x2c,0x45,0xda,0x73,0x02,0xe3,0xf8,0x01,0x0a,0x0e,0xeb,0x02,0x37,0xca,0x06,0x19,0x34,0x27,0x40,0x21,0x0f,0x3c,0x2f,0x32,0x1b,0x16,0x11,0x2e,0xe2,0xfd,
0x16,0xae,0x1c,0xee,0xeb,0x4f,0xd5,0x04,0xe2,0xff,0x0f,0x14,0x0b,0xf5,0xfd,0x39,0x0a,0xf9,0xdb,0xe1,0xe7,0x20,0xe4,0x26,0xef,0xf8,0xee,0x1f,0xe5,0x3b,0xec,0xf8,
0xfa,0xdf,0x05,0xbf,0x2b,0x0f,0xed,0x0e,0x0d,0x28,0xd6,0x08,0xf2,0x13,0x13,0x16,0xf4,0x0f,0x00,0x3c,0xef,0x0f,0x25,0xdb,0xf6,0x22,0xf3,0xef,0x14,0xc3,0xf0,0x24,
0x0a,0x38,0x03,0xe2,0xfb,0x08,0x06,0x03,0x17,0xfe,0x51,0xfb,0x22,0xfb,0xd3,0x3f,0x07,0xea,0x0f,0xf1,0xf8,0xe3,0xf2,0xe7,0xf8,0x0e,0x0a,0x01,0x10,0x04,0xe8,0xf4,
0x3c,0xef,0xfa,0xe9,0x0c,0x05,0xf5,0x30,0xd9,0x0a,0xfe,0xf5,0x11,0x02,0xe3,0x06,0xc7,0xb4,0xfc,0xf7,0xf1,0x04,0xc2,0x02,0x1e,0x00,0x28,0xfe,0xf2,0xeb,0x1c,0xea,
0xd7,0x00,0xde,0x11,0xe9,0x0b,0xf6,0xd1,0x1c,0xd0,0x01,0x1c,0xe1,0x1b,0xfd,0xe9,0x2d,0xf6,0xf1,0xeb,0x2a,0xd4,0xef,0x17,0xd2,0xf2,0xd3,0x0e,0x1a,0x0c,0x02,0xf3,
0x15,0xf3,0xfb,0xfb,0x08,0xfa,0x26,0xfb,0xe4,0x17,0xc7,0xe3,0x02,0x11,0x18,0xf0,0x10,0x22,0x16,0xf1,0xf4,0x0c,0x0a,0xe9,0x0e,0xf7,0x07,0x0e,0xfe,0xef,0xbc,0xea,
0xc6,0xe6,0xe5,0x02,0xf5,0x1b,0x01,0x0d,0xf2,0x0a,0xd9,0x2f,0x14,0xf8,0x24,0xf9,0xf4,0xdd,0x1e,0xf8,0x02,0xbb,0xe2,0x03,0xfc,0x2a,0x17,0x35,0xf6,0xfb,0x0b,0x15,
0x1f,0x03,0xfc,0x0f,0x0d,0xff,0x1c,0xeb,0xde,0xff,0x18,0xf3,0xfd,0xf6,0xf9,0x02,0xca,0x02,0xff,0xd1,0x16,0xf2,0xf2,0xe2,0xfb,0xe2,0x06,0xfe,0x09,0xcb,0xd9,0x13,
0xb3,0x1b,0xe9,0xd8,0xec,0x3b,0x06,0x04,0xe2,0x37,0xf7,0x0d,0x44,0x25,0xf4,0x09,0xe8,0x00,0xd8,0xbb,0x05,0xec,0x0e,0x03,0xda,0xd3,0x2f,0xd5,0xef,0x0b,0xbe,0xfc,
0x17,0xde,0x30,0xf4,0xf2,0x29,0xf0,0xf3,0xe2,0x43,0x52,0xaf,0xd9,0xf0,0x0d,0xec,0x1a,0x22,0x4d,0x13,0xe4,0x0b,0x23,0xe3,0x0a,0xfd,0xdf,0x2d,0x18,0xe9,0xe9,0x33,
0x0f,0x2a,0x31,0xfb,0xe6,0xf9,0xef,0x2c,0xc2,0x17,0x05,0x30,0x13,0x16,0x0e,0x0f,0x38,0x07,0xf3,0xcb,0x20,0xfa,0x15,0x02,0x00,0x4e,0x25,0x2f,0xe9,0x3c,0xb4,0x16,
0x1b,0xfc,0x20,0xd1,0xdc,0xef,0x0d,0xe9,0xfb,0x29,0x48,0xc1,0xe5,0xc9,0xea,0x34,0x16,0x21,0xdf,0xcc,0x10,0x13,0xdc,0x56,0xfb,0xdb,0xf2,0xfc,0x0c,0x26,0xc2,0x4f,
0xd4,0xe1,0x26,0x00,0x15,0xf0,0xe2,0xf1,0xf8,0xf9,0xea,0xed,0xff,0x1c,0x06,0x05,0x0c,0xe7,0xef,0xe6,0x07,0x07,0xf0,0xe6,0xf4,0xdc,0x10,0xde,0xf8,0xf0,0x02,0xe4,
